// Generated from models/gesture_simple_model_quantized.tflite
// Model size: 9744 bytes

unsigned char gesture_simple_model_quantized[] = {
  0x20, 0x00, 0x00, 0x00, 0x54, 0x46, 0x4c, 0x33, 0x00, 0x00, 0x00, 0x00, 
  0x14, 0x00, 0x20, 0x00, 0x1c, 0x00, 0x18, 0x00, 0x14, 0x00, 0x10, 0x00, 
  0x0c, 0x00, 0x00, 0x00, 0x08, 0x00, 0x04, 0x00, 0x14, 0x00, 0x00, 0x00, 
  0x1c, 0x00, 0x00, 0x00, 0x98, 0x00, 0x00, 0x00, 0x18, 0x01, 0x00, 0x00, 
  0x64, 0x14, 0x00, 0x00, 0x74, 0x14, 0x00, 0x00, 0x84, 0x25, 0x00, 0x00, 
  0x03, 0x00, 0x00, 0x00, 0x01, 0x00, 0x00, 0x00, 0x10, 0x00, 0x00, 0x00, 
  0x00, 0x00, 0x0a, 0x00, 0x10, 0x00, 0x0c, 0x00, 0x08, 0x00, 0x04, 0x00, 
  0x0a, 0x00, 0x00, 0x00, 0x0c, 0x00, 0x00, 0x00, 0x1c, 0x00, 0x00, 0x00, 
  0x3c, 0x00, 0x00, 0x00, 0x0f, 0x00, 0x00, 0x00, 0x73, 0x65, 0x72, 0x76, 
  0x69, 0x6e, 0x67, 0x5f, 0x64, 0x65, 0x66, 0x61, 0x75, 0x6c, 0x74, 0x00, 
  0x01, 0x00, 0x00, 0x00, 0x04, 0x00, 0x00, 0x00, 0x68, 0xff, 0xff, 0xff, 
  0x0c, 0x00, 0x00, 0x00, 0x04, 0x00, 0x00, 0x00, 0x08, 0x00, 0x00, 0x00, 
  0x6f, 0x75, 0x74, 0x70, 0x75, 0x74, 0x5f, 0x30, 0x00, 0x00, 0x00, 0x00, 
  0x01, 0x00, 0x00, 0x00, 0x04, 0x00, 0x00, 0x00, 0x8e, 0xeb, 0xff, 0xff, 
  0x04, 0x00, 0x00, 0x00, 0x0d, 0x00, 0x00, 0x00, 0x69, 0x6e, 0x70, 0x75, 
  0x74, 0x5f, 0x6c, 0x61, 0x79, 0x65, 0x72, 0x5f, 0x31, 0x00, 0x00, 0x00, 
  0x03, 0x00, 0x00, 0x00, 0x5c, 0x00, 0x00, 0x00, 0x2c, 0x00, 0x00, 0x00, 
  0x04, 0x00, 0x00, 0x00, 0xb8, 0xff, 0xff, 0xff, 0x10, 0x00, 0x00, 0x00, 
  0x04, 0x00, 0x00, 0x00, 0x13, 0x00, 0x00, 0x00, 0x43, 0x4f, 0x4e, 0x56, 
  0x45, 0x52, 0x53, 0x49, 0x4f, 0x4e, 0x5f, 0x4d, 0x45, 0x54, 0x41, 0x44, 
  0x41, 0x54, 0x41, 0x00, 0xdc, 0xff, 0xff, 0xff, 0x0f, 0x00, 0x00, 0x00, 
  0x04, 0x00, 0x00, 0x00, 0x13, 0x00, 0x00, 0x00, 0x6d, 0x69, 0x6e, 0x5f, 
  0x72, 0x75, 0x6e, 0x74, 0x69, 0x6d, 0x65, 0x5f, 0x76, 0x65, 0x72, 0x73, 
  0x69, 0x6f, 0x6e, 0x00, 0x08, 0x00, 0x0c, 0x00, 0x08, 0x00, 0x04, 0x00, 
  0x08, 0x00, 0x00, 0x00, 0x0e, 0x00, 0x00, 0x00, 0x04, 0x00, 0x00, 0x00, 
  0x13, 0x00, 0x00, 0x00, 0x6d, 0x69, 0x6e, 0x5f, 0x72, 0x75, 0x6e, 0x74, 
  0x69, 0x6d, 0x65, 0x5f, 0x76, 0x65, 0x72, 0x73, 0x69, 0x6f, 0x6e, 0x00, 
  0x11, 0x00, 0x00, 0x00, 0x48, 0x13, 0x00, 0x00, 0x40, 0x13, 0x00, 0x00, 
  0x28, 0x13, 0x00, 0x00, 0x0c, 0x13, 0x00, 0x00, 0x9c, 0x12, 0x00, 0x00, 
  0x0c, 0x12, 0x00, 0x00, 0xfc, 0x09, 0x00, 0x00, 0xec, 0x08, 0x00, 0x00, 
  0xdc, 0x00, 0x00, 0x00, 0xd4, 0x00, 0x00, 0x00, 0xcc, 0x00, 0x00, 0x00, 
  0xc4, 0x00, 0x00, 0x00, 0xbc, 0x00, 0x00, 0x00, 0xb4, 0x00, 0x00, 0x00, 
  0x94, 0x00, 0x00, 0x00, 0x74, 0x00, 0x00, 0x00, 0x04, 0x00, 0x00, 0x00, 
  0x76, 0xec, 0xff, 0xff, 0x04, 0x00, 0x00, 0x00, 0x60, 0x00, 0x00, 0x00, 
  0x0c, 0x00, 0x00, 0x00, 0x08, 0x00, 0x0e, 0x00, 0x08, 0x00, 0x04, 0x00, 
  0x08, 0x00, 0x00, 0x00, 0x10, 0x00, 0x00, 0x00, 0x28, 0x00, 0x00, 0x00, 
  0x00, 0x00, 0x06, 0x00, 0x08, 0x00, 0x04, 0x00, 0x06, 0x00, 0x00, 0x00, 
  0x04, 0x00, 0x00, 0x00, 0x01, 0x00, 0x00, 0x00, 0xeb, 0x03, 0x00, 0x00, 
  0x0c, 0x00, 0x18, 0x00, 0x14, 0x00, 0x10, 0x00, 0x0c, 0x00, 0x04, 0x00, 
  0x0c, 0x00, 0x00, 0x00, 0x1a, 0x4f, 0xaf, 0x0e, 0x5a, 0x8a, 0x1e, 0xea, 
  0x02, 0x00, 0x00, 0x00, 0x02, 0x00, 0x00, 0x00, 0x04, 0x00, 0x00, 0x00, 
  0x06, 0x00, 0x00, 0x00, 0x32, 0x2e, 0x31, 0x39, 0x2e, 0x30, 0x00, 0x00, 
  0xe2, 0xec, 0xff, 0xff, 0x04, 0x00, 0x00, 0x00, 0x10, 0x00, 0x00, 0x00, 
  0x00, 0x00, 0x00, 0x00, 0x00, 0x00, 0x00, 0x00, 0x00, 0x00, 0x00, 0x00, 
  0x00, 0x00, 0x00, 0x00, 0xfe, 0xec, 0xff, 0xff, 0x04, 0x00, 0x00, 0x00, 
  0x10, 0x00, 0x00, 0x00, 0x31, 0x2e, 0x31, 0x34, 0x2e, 0x30, 0x00, 0x00, 
  0x00, 0x00, 0x00, 0x00, 0x00, 0x00, 0x00, 0x00, 0x40, 0xdd, 0xff, 0xff, 
  0x44, 0xdd, 0xff, 0xff, 0x48, 0xdd, 0xff, 0xff, 0x4c, 0xdd, 0xff, 0xff, 
  0x50, 0xdd, 0xff, 0xff, 0x2e, 0xed, 0xff, 0xff, 0x04, 0x00, 0x00, 0x00, 
  0x00, 0x08, 0x00, 0x00, 0x47, 0x99, 0x50, 0xc1, 0x32, 0xc5, 0x6a, 0xc0, 
  0xba, 0x5a, 0xf9, 0x68, 0xe9, 0xcb, 0x8d, 0x94, 0xdd, 0x68, 0xc6, 0x4e, 
  0xa5, 0xf0, 0xa6, 0xdb, 0x16, 0xaf, 0xfd, 0xab, 0x48, 0x0e, 0x81, 0x8f, 
  0xf8, 0xaf, 0xa7, 0x24, 0xd5, 0x73, 0x24, 0xba, 0x3d, 0x38, 0xbf, 0xdf, 
  0x40, 0x54, 0x5a, 0xa8, 0xc3, 0xbc, 0x01, 0xd4, 0x60, 0xf7, 0x3e, 0x3d, 
  0x38, 0x2c, 0xf4, 0x7f, 0xff, 0xd6, 0xf2, 0x0a, 0xf4, 0x05, 0xc0, 0x58, 
  0xb4, 0xda, 0x67, 0x94, 0x7f, 0xd8, 0xb5, 0xd3, 0xe1, 0x66, 0x73, 0xe6, 
  0xbb, 0xd8, 0x12, 0x2a, 0x46, 0xd3, 0x7c, 0x26, 0x09, 0x33, 0x27, 0x0f, 
  0x61, 0xca, 0xcb, 0x1e, 0x0f, 0xbd, 0x60, 0x95, 0x2b, 0x51, 0x9c, 0xf2, 
  0xc8, 0x2a, 0x45, 0x3e, 0x88, 0xc8, 0x34, 0x19, 0x9f, 0x63, 0x13, 0x79, 
  0xdd, 0x20, 0x38, 0x9f, 0xfc, 0xc8, 0x7f, 0xb7, 0xb9, 0x24, 0x44, 0xf9, 
  0xde, 0x46, 0x51, 0x14, 0x37, 0x9b, 0x47, 0xee, 0xed, 0x2c, 0xee, 0x4e, 
  0x5f, 0xba, 0x35, 0x6c, 0x21, 0x5f, 0x25, 0x1f, 0xfc, 0x6c, 0x81, 0x97, 
  0x94, 0xc1, 0x99, 0x9b, 0x13, 0x2c, 0x1e, 0x77, 0x95, 0xe2, 0x8e, 0xc1, 
  0x8c, 0xb3, 0xb9, 0xdf, 0x5d, 0x3c, 0xaf, 0x96, 0xfe, 0xd6, 0xf3, 0x17, 
  0x81, 0x43, 0x3b, 0x46, 0xe8, 0x08, 0x33, 0xc5, 0xbc, 0x2f, 0x6a, 0x1c, 
  0xa9, 0x9d, 0xdd, 0x72, 0x22, 0x4f, 0x33, 0xd1, 0x81, 0x12, 0x4a, 0x68, 
  0xb5, 0xf3, 0xbf, 0xcf, 0x7a, 0x27, 0xc4, 0xd5, 0x2e, 0x38, 0xfc, 0x69, 
  0x0b, 0xe3, 0xa1, 0x9e, 0x4b, 0x73, 0x3a, 0xf7, 0xdf, 0x25, 0x88, 0x61, 
  0xa2, 0xb2, 0xe4, 0x0e, 0xeb, 0x44, 0x5d, 0x81, 0x3f, 0x5a, 0xd7, 0xa8, 
  0xfd, 0xd0, 0x8c, 0x27, 0xf7, 0x49, 0xf7, 0x77, 0xf4, 0x47, 0xd4, 0x32, 
  0x04, 0x4e, 0xb2, 0x75, 0x27, 0xb2, 0xc0, 0xfa, 0x27, 0x57, 0x8d, 0xd7, 
  0x88, 0xab, 0xb9, 0xfe, 0x61, 0x96, 0x7f, 0xdc, 0xf2, 0xdd, 0xa2, 0x98, 
  0xd5, 0x88, 0x60, 0x4d, 0xf5, 0xa2, 0xf6, 0xa7, 0x07, 0x23, 0xa4, 0x87, 
  0xb4, 0x44, 0x01, 0xed, 0xec, 0xb8, 0xc7, 0x07, 0x2c, 0xe2, 0x27, 0x81, 
  0x64, 0x6d, 0xae, 0x9f, 0x6c, 0xe6, 0x6d, 0xb6, 0x48, 0xc5, 0x51, 0xb3, 
  0x38, 0x94, 0xe9, 0xbd, 0x60, 0x4a, 0x98, 0x5f, 0xe8, 0x1e, 0x48, 0x40, 
  0x11, 0x20, 0xaa, 0xea, 0x4d, 0xa9, 0x09, 0x0e, 0x6c, 0xdd, 0xa0, 0x42, 
  0x8b, 0xb9, 0xd1, 0x18, 0x62, 0xb9, 0xb8, 0x4d, 0xf9, 0x11, 0xe1, 0xc3, 
  0x1e, 0x9f, 0xf1, 0x4a, 0x81, 0x03, 0x09, 0xce, 0x4d, 0x78, 0xe9, 0xe9, 
  0x3d, 0x9f, 0x9e, 0x1a, 0xd3, 0x47, 0x35, 0xf3, 0x81, 0x70, 0xf7, 0x01, 
  0x57, 0xf1, 0xd7, 0x41, 0x72, 0xc6, 0x2d, 0x7c, 0xd5, 0x6e, 0xca, 0xfc, 
  0x9d, 0x8a, 0x77, 0x0b, 0x2c, 0xba, 0x7f, 0xe3, 0x92, 0x45, 0x42, 0x3a, 
  0x70, 0x30, 0x5a, 0xa4, 0xf7, 0xb1, 0x10, 0x91, 0xfa, 0x85, 0xab, 0xfe, 
  0x27, 0xa6, 0x99, 0xa6, 0xa4, 0xcf, 0xac, 0x6b, 0xc2, 0x43, 0x54, 0x48, 
  0x12, 0x4f, 0x49, 0x1c, 0xdf, 0x72, 0x2b, 0x23, 0x75, 0xf8, 0x77, 0xcd, 
  0xdf, 0x56, 0x81, 0x28, 0x78, 0x69, 0x52, 0x9a, 0x2b, 0xcf, 0x6a, 0x8a, 
  0xd9, 0xe2, 0x18, 0xb0, 0x5b, 0x99, 0x21, 0x87, 0x2c, 0xc1, 0xe3, 0x3a, 
  0x4c, 0x89, 0x94, 0x4f, 0xad, 0x5b, 0x52, 0x7d, 0xf4, 0xbb, 0x1a, 0x24, 
  0x25, 0xd1, 0xa2, 0x22, 0x08, 0x3a, 0xe1, 0xd0, 0xd5, 0x49, 0x7a, 0x0d, 
  0xa0, 0xbf, 0x7f, 0x09, 0x5b, 0x37, 0x33, 0x11, 0x1a, 0xf6, 0x2e, 0x7b, 
  0x66, 0x58, 0x58, 0xb0, 0x7f, 0x4b, 0xc4, 0x34, 0x7c, 0xdd, 0xc6, 0xad, 
  0xf4, 0xad, 0x4d, 0x4f, 0xd4, 0x7d, 0xbf, 0x39, 0xc9, 0x5c, 0x4d, 0x88, 
  0x87, 0xbb, 0x60, 0x07, 0x81, 0xdf, 0x65, 0x41, 0x9a, 0x52, 0xee, 0x3a, 
  0x9f, 0x00, 0x79, 0x3a, 0xa0, 0xcf, 0xbf, 0x0a, 0xd6, 0x29, 0xee, 0x33, 
  0x62, 0xa5, 0xce, 0xbd, 0xbf, 0x36, 0x9e, 0x01, 0x9e, 0xf6, 0x78, 0x90, 
  0x86, 0x63, 0x1a, 0x6d, 0x7f, 0xf5, 0x6d, 0xc3, 0x91, 0x7e, 0xa0, 0xf3, 
  0x05, 0x3f, 0x6b, 0xf8, 0xff, 0x99, 0x6b, 0x4d, 0xbc, 0xbd, 0xf2, 0x48, 
  0x39, 0xca, 0xed, 0x0a, 0xe3, 0x67, 0x98, 0xa8, 0xad, 0x58, 0x64, 0xe4, 
  0x02, 0x25, 0x32, 0x09, 0x67, 0xd3, 0xa1, 0x6f, 0x16, 0x39, 0xe0, 0xbb, 
  0xc0, 0x62, 0x17, 0x7f, 0x3c, 0x27, 0x30, 0xec, 0x1d, 0x9b, 0x73, 0x25, 
  0x16, 0x3c, 0x2c, 0x7f, 0x68, 0x11, 0xb1, 0xda, 0x35, 0xd0, 0x5e, 0x1a, 
  0x68, 0x20, 0x31, 0x0e, 0xe9, 0x92, 0xaf, 0xa9, 0xb9, 0xb0, 0x88, 0x69, 
  0x36, 0xb6, 0x62, 0x68, 0xf2, 0x72, 0x77, 0xee, 0x96, 0x2d, 0xf5, 0xcf, 
  0x48, 0x48, 0x54, 0x31, 0x7f, 0x46, 0xb2, 0x30, 0xd0, 0xd8, 0x0b, 0xd5, 
  0xd1, 0xb6, 0xc7, 0x1d, 0x2f, 0xe9, 0x92, 0xce, 0x4a, 0x3f, 0xa9, 0x22, 
  0xc7, 0xa2, 0x8d, 0x3b, 0x28, 0x30, 0x93, 0x10, 0xe9, 0x59, 0xfd, 0xfe, 
  0xcc, 0xdb, 0x7f, 0x0b, 0x00, 0x24, 0x70, 0x91, 0x41, 0xfb, 0xcb, 0x15, 
  0x8f, 0x86, 0x9a, 0xca, 0x18, 0x61, 0x3b, 0x30, 0x39, 0xdb, 0x32, 0xdb, 
  0xb1, 0x06, 0xe5, 0x43, 0xd3, 0x2b, 0x60, 0x9c, 0x58, 0x11, 0x4a, 0x5a, 
  0x4a, 0x81, 0x54, 0x06, 0xe2, 0x17, 0xcf, 0x37, 0xf8, 0xc3, 0xef, 0xfb, 
  0x1a, 0x81, 0xa3, 0x56, 0x0c, 0xec, 0x20, 0x8e, 0xcc, 0xe8, 0xbf, 0x43, 
  0x34, 0x6d, 0x1d, 0xd8, 0x18, 0xc3, 0xc7, 0x15, 0xcc, 0x46, 0xf8, 0x70, 
  0x29, 0x60, 0x71, 0x2a, 0xf5, 0x76, 0xea, 0x3b, 0x11, 0xbf, 0x0f, 0x7f, 
  0x1a, 0xcd, 0xf4, 0x75, 0x06, 0x22, 0x28, 0xb0, 0x24, 0x48, 0x00, 0xe5, 
  0xb2, 0x59, 0x7f, 0xb6, 0x20, 0x52, 0xf9, 0x28, 0x3e, 0x22, 0xc7, 0xc9, 
  0xaf, 0xcb, 0x3e, 0x3f, 0x16, 0x62, 0x0a, 0x98, 0xb2, 0xad, 0xef, 0x1b, 
  0x28, 0x61, 0xcb, 0x1b, 0x21, 0x66, 0x46, 0xe3, 0x07, 0xe6, 0x57, 0x27, 
  0x25, 0xb9, 0x39, 0x04, 0x94, 0x1e, 0xb1, 0x7f, 0xea, 0x4f, 0xd9, 0x50, 
  0xb7, 0xa3, 0x42, 0xbf, 0x36, 0xe5, 0x34, 0x16, 0x0f, 0xe2, 0xb6, 0x18, 
  0x01, 0x6d, 0xfc, 0x4b, 0xb9, 0xd1, 0x79, 0x81, 0x50, 0x1f, 0x3f, 0xfb, 
  0xa8, 0xbb, 0x5a, 0x9a, 0xd2, 0x73, 0xf4, 0xaf, 0x24, 0x3a, 0x52, 0x85, 
  0x33, 0x32, 0xc6, 0x11, 0x75, 0xc0, 0x6a, 0xcc, 0xd2, 0x12, 0xea, 0x25, 
  0x2b, 0x76, 0x81, 0xda, 0x9a, 0x17, 0x45, 0x88, 0xb5, 0xf6, 0x63, 0xed, 
  0x46, 0xd1, 0xaa, 0xa8, 0xab, 0xbc, 0xc9, 0x4e, 0x44, 0xc8, 0x6b, 0xc2, 
  0xf9, 0x23, 0x48, 0xc5, 0x63, 0x4a, 0x09, 0xc7, 0x0d, 0x01, 0x65, 0x93, 
  0x9f, 0xb1, 0x4f, 0x48, 0x61, 0x39, 0x4e, 0xb5, 0x4e, 0x2c, 0x61, 0x7f, 
  0xbd, 0x87, 0xac, 0xc3, 0x28, 0x38, 0xfb, 0xfc, 0xf9, 0xc1, 0x02, 0xb5, 
  0xe5, 0x17, 0x77, 0x62, 0xaa, 0xa0, 0x3c, 0x7f, 0x65, 0xf9, 0x64, 0x44, 
  0xec, 0x21, 0xc6, 0xf1, 0x41, 0x0f, 0x59, 0xf4, 0x69, 0x2e, 0x6a, 0x37, 
  0xac, 0x0b, 0xed, 0x63, 0xc6, 0x4f, 0xcd, 0x22, 0xeb, 0xbb, 0x32, 0x81, 
  0xf3, 0x0f, 0x31, 0xda, 0xfe, 0x54, 0xcb, 0x0b, 0x4d, 0xcf, 0xc9, 0x6a, 
  0x2b, 0xd6, 0x38, 0xa2, 0xcc, 0xa9, 0x8d, 0x76, 0x3f, 0xc0, 0x6a, 0x20, 
  0xcc, 0x2d, 0x2f, 0x0c, 0x65, 0xe1, 0xa1, 0x2a, 0xb7, 0xbe, 0x28, 0xc6, 
  0x2b, 0x41, 0x95, 0x7f, 0x77, 0x5d, 0x3c, 0x09, 0x35, 0xe3, 0x39, 0x92, 
  0xca, 0xe8, 0x00, 0x54, 0x65, 0x22, 0xe9, 0x2c, 0xe9, 0xf8, 0x8a, 0x01, 
  0x4b, 0x71, 0xe3, 0xde, 0x61, 0x00, 0xeb, 0x3b, 0xb8, 0xf2, 0xfe, 0x81, 
  0x1b, 0xa8, 0x2e, 0x5f, 0x60, 0x6c, 0x13, 0x4f, 0x00, 0x4c, 0x09, 0x4a, 
  0xbb, 0xc4, 0x9a, 0x48, 0x71, 0xc4, 0x52, 0xb0, 0x5b, 0xf4, 0x53, 0xdb, 
  0x46, 0x22, 0x7f, 0xb5, 0x94, 0xca, 0x8a, 0xb0, 0x83, 0xfc, 0xbe, 0x47, 
  0x0c, 0x57, 0xfd, 0x6c, 0x6a, 0xbf, 0xa3, 0x7c, 0x4a, 0x2a, 0xb0, 0x3b, 
  0x4f, 0x9b, 0xe6, 0xa3, 0x3c, 0x2e, 0x3b, 0x83, 0xc2, 0x0d, 0xe6, 0x68, 
  0x36, 0x06, 0x17, 0x0b, 0xcc, 0x16, 0x3a, 0xd5, 0xc8, 0x5f, 0x4c, 0x6e, 
  0x0a, 0x81, 0xa8, 0xed, 0x23, 0xcb, 0xc2, 0x07, 0x25, 0xf0, 0x61, 0x1e, 
  0x10, 0x2a, 0x40, 0xfd, 0x48, 0xcc, 0xe6, 0x9c, 0xee, 0xac, 0x67, 0x54, 
  0xd6, 0xc8, 0xa7, 0xee, 0x74, 0x5b, 0x53, 0x2c, 0x81, 0x1b, 0xb5, 0x70, 
  0xa6, 0xff, 0x65, 0xa1, 0xdc, 0xe6, 0xc1, 0x26, 0x1d, 0xb8, 0xb6, 0xf4, 
  0xc0, 0xcb, 0x14, 0x04, 0xc5, 0xfd, 0x08, 0xd5, 0x51, 0xae, 0x53, 0xa2, 
  0xe0, 0x59, 0xfc, 0xb0, 0xf2, 0x08, 0x81, 0xef, 0x28, 0x6a, 0x18, 0xce, 
  0xf5, 0x29, 0xfe, 0xb5, 0xf7, 0xf8, 0xd2, 0xb0, 0xe9, 0x92, 0x19, 0x59, 
  0x67, 0x81, 0x4d, 0xd3, 0x5e, 0x4c, 0x22, 0x51, 0x21, 0x7d, 0x6b, 0x68, 
  0xb6, 0x9a, 0xbd, 0x1f, 0xbe, 0x23, 0xbf, 0x15, 0x3a, 0x0c, 0xce, 0x20, 
  0xfa, 0xe2, 0x2c, 0xc0, 0x28, 0x5f, 0xba, 0x62, 0x53, 0x06, 0xa0, 0x97, 
  0xd1, 0xae, 0xac, 0x7f, 0xc9, 0x40, 0x85, 0x2c, 0x14, 0x69, 0x52, 0x45, 
  0x1f, 0x21, 0x77, 0x42, 0x49, 0x0c, 0xcd, 0xfa, 0x26, 0xfd, 0x46, 0x8f, 
  0x4a, 0x5d, 0x6c, 0x46, 0x13, 0x4b, 0x4c, 0x2d, 0xa6, 0x7c, 0x08, 0x22, 
  0x91, 0x0f, 0x27, 0xb0, 0x95, 0x60, 0x26, 0x13, 0x76, 0xe6, 0x81, 0xbd, 
  0x85, 0x9b, 0xc9, 0x02, 0x66, 0x13, 0x2b, 0x81, 0x3a, 0xdd, 0x1c, 0x62, 
  0x9a, 0x32, 0x85, 0x91, 0x36, 0x58, 0x0d, 0x05, 0xa6, 0xe1, 0x22, 0x12, 
  0xc9, 0x71, 0x9a, 0x1c, 0x6b, 0x42, 0xe7, 0xd6, 0x50, 0x7e, 0xf0, 0x15, 
  0x6c, 0x39, 0xad, 0x5d, 0xb7, 0x00, 0x4d, 0x7f, 0x06, 0x7b, 0x35, 0xc9, 
  0xf6, 0x61, 0x93, 0x22, 0xbf, 0xb4, 0xc2, 0x9f, 0x8e, 0x7c, 0xc0, 0xac, 
  0x25, 0x13, 0x44, 0xf7, 0x79, 0x0c, 0x81, 0xae, 0x56, 0xe0, 0xab, 0x6f, 
  0x4f, 0xc1, 0x5b, 0xe8, 0xc7, 0x95, 0x56, 0x6a, 0x10, 0xc5, 0xb9, 0x82, 
  0x44, 0x38, 0xe0, 0x2e, 0x18, 0x0d, 0xce, 0x3a, 0xf3, 0xc5, 0x21, 0x19, 
  0xc7, 0x7c, 0xcf, 0x7f, 0xdd, 0x44, 0x2b, 0x26, 0xc0, 0xb1, 0x61, 0x9c, 
  0x13, 0xd8, 0xb5, 0x00, 0x08, 0xe0, 0xda, 0x6e, 0x3f, 0x74, 0x29, 0xf9, 
  0x5d, 0xcd, 0x6e, 0xfc, 0x91, 0x5e, 0x3a, 0x14, 0xdd, 0xb5, 0x95, 0x02, 
  0x85, 0xf7, 0x9b, 0xee, 0xf2, 0x6b, 0xcd, 0xde, 0xf6, 0x1e, 0xf8, 0xc3, 
  0x3f, 0xff, 0x24, 0xb4, 0x81, 0x76, 0xf4, 0x26, 0xad, 0x11, 0xfa, 0x20, 
  0x8a, 0x5b, 0x5d, 0xe6, 0x9b, 0x20, 0xb5, 0x72, 0xdd, 0xa0, 0xba, 0xd2, 
  0x63, 0xb8, 0x5c, 0x48, 0xc0, 0xb0, 0x19, 0x07, 0x07, 0xd5, 0x7e, 0x59, 
  0x07, 0x88, 0x7f, 0xcc, 0x5a, 0x58, 0x8a, 0x59, 0x25, 0x0e, 0xf6, 0xed, 
  0xb5, 0x15, 0x42, 0x85, 0x50, 0xa3, 0x4d, 0x97, 0xff, 0xbd, 0xe9, 0x9f, 
  0x43, 0xf3, 0x75, 0x9c, 0x5f, 0x23, 0xcf, 0xd9, 0x81, 0x32, 0x6a, 0xa8, 
  0xfb, 0xed, 0xdd, 0xad, 0xc7, 0x38, 0xfe, 0xc2, 0x34, 0x0a, 0x77, 0xde, 
  0x1a, 0xb5, 0x16, 0x81, 0x41, 0x08, 0x34, 0x6d, 0xa4, 0xbc, 0x4a, 0xfc, 
  0xc5, 0xd7, 0xbd, 0xb8, 0x3f, 0x62, 0xe4, 0xa8, 0xa2, 0x3d, 0xff, 0x23, 
  0x3e, 0xb3, 0x53, 0x06, 0x1f, 0x28, 0xd6, 0x06, 0xbe, 0xb4, 0x93, 0x03, 
  0xcf, 0xca, 0x43, 0x66, 0x86, 0xeb, 0x8b, 0x79, 0x05, 0xbd, 0xa3, 0xca, 
  0x0f, 0x71, 0x39, 0xc5, 0x6e, 0xa5, 0x81, 0x46, 0x5a, 0x36, 0xb1, 0x3c, 
  0xb7, 0x68, 0x31, 0x7d, 0x85, 0x26, 0x4f, 0xeb, 0xdc, 0x2f, 0x28, 0xcd, 
  0x67, 0xa7, 0x85, 0xfc, 0xd0, 0x72, 0xb7, 0x0d, 0xae, 0xaf, 0x51, 0x7f, 
  0x41, 0xf8, 0x0d, 0x2d, 0xd8, 0x2e, 0xca, 0x10, 0x4e, 0xbe, 0x2e, 0xd9, 
  0x2a, 0xe5, 0xe8, 0x81, 0x2d, 0x01, 0x2d, 0x59, 0x05, 0xef, 0x49, 0xcb, 
  0x5c, 0x58, 0x1c, 0xee, 0xa6, 0x12, 0x42, 0xec, 0x12, 0xb8, 0x44, 0xff, 
  0x09, 0xf4, 0x2a, 0xa0, 0x35, 0xd4, 0x3c, 0xce, 0x88, 0x3d, 0xbb, 0x66, 
  0x16, 0xf7, 0x02, 0x18, 0x16, 0x8d, 0x01, 0xed, 0x86, 0x7f, 0x0f, 0x8d, 
  0x2d, 0x6f, 0x43, 0x41, 0xc3, 0x56, 0x16, 0xda, 0x85, 0x16, 0x15, 0x5b, 
  0xf5, 0x14, 0xf6, 0x1a, 0x67, 0x55, 0x24, 0x61, 0xb6, 0x8c, 0x34, 0x17, 
  0x37, 0x44, 0x5f, 0x3c, 0x9e, 0x2f, 0x5d, 0xda, 0xb0, 0x9e, 0xea, 0x9d, 
  0xe0, 0xf6, 0xef, 0x95, 0xe6, 0x7f, 0xed, 0x31, 0xd4, 0x89, 0x96, 0x13, 
  0xb4, 0x9f, 0x0d, 0xd4, 0x73, 0x48, 0x20, 0x7f, 0xcb, 0xf8, 0xda, 0xa4, 
  0x98, 0xdb, 0x8e, 0x5e, 0xb0, 0xbd, 0xd1, 0xc3, 0xdf, 0xb3, 0xbf, 0x2b, 
  0xf6, 0xbf, 0x2b, 0xd0, 0xf0, 0x28, 0xd7, 0xda, 0x5d, 0x9e, 0x48, 0xd2, 
  0x60, 0xf5, 0xf1, 0xec, 0x7c, 0xa4, 0x6d, 0x94, 0x05, 0x79, 0x0d, 0xc6, 
  0x37, 0xe4, 0xd7, 0x81, 0x4d, 0x38, 0x17, 0x03, 0xbf, 0xf2, 0xc7, 0x2d, 
  0x18, 0xa9, 0x40, 0x11, 0xd7, 0x94, 0x2d, 0xc7, 0x65, 0xd1, 0xca, 0x2b, 
  0xf5, 0xb1, 0xa0, 0x7b, 0x0a, 0xeb, 0x98, 0x8b, 0xfb, 0x70, 0x6b, 0x85, 
  0x00, 0xad, 0x2c, 0xbd, 0x90, 0x3b, 0xb9, 0x7f, 0x01, 0x15, 0x9a, 0xf7, 
  0x3f, 0xba, 0x98, 0xe3, 0xb8, 0x5c, 0xde, 0x33, 0x05, 0x96, 0xa3, 0xd6, 
  0x1b, 0x44, 0xce, 0xe5, 0x86, 0xfd, 0x64, 0x6f, 0x35, 0x5d, 0x4f, 0xec, 
  0x3a, 0xc8, 0x81, 0x8e, 0x41, 0x5d, 0x2f, 0x8a, 0x33, 0xf4, 0xcb, 0xdd, 
  0xad, 0xfb, 0x43, 0x6e, 0xb7, 0xd4, 0x8a, 0x7f, 0xfd, 0xca, 0xc1, 0xe8, 
  0x19, 0x76, 0x5c, 0xa6, 0x72, 0x79, 0x45, 0xdc, 0xe6, 0xf9, 0xf0, 0x12, 
  0x13, 0x66, 0x01, 0x6a, 0xdf, 0x4d, 0x8a, 0xd3, 0x49, 0xa4, 0x71, 0x28, 
  0x6f, 0xe9, 0x92, 0xfe, 0x09, 0x89, 0x73, 0x6e, 0xc7, 0x1d, 0xb6, 0xc1, 
  0x26, 0x7f, 0xd6, 0xe7, 0x72, 0x6a, 0x87, 0xb6, 0xdc, 0x36, 0x30, 0x67, 
  0x3a, 0x34, 0xd2, 0x7f, 0x4a, 0xf9, 0x1f, 0xcd, 0x3b, 0xbe, 0x3e, 0xa4, 
  0xeb, 0x39, 0x5e, 0xb2, 0xfb, 0xcc, 0x8e, 0x34, 0x0d, 0x54, 0xca, 0xb5, 
  0x5e, 0x9e, 0x25, 0x6d, 0x13, 0xeb, 0xb1, 0x57, 0x3b, 0x63, 0xb7, 0x7f, 
  0xb3, 0xc2, 0xe2, 0xfd, 0x52, 0xb0, 0xd3, 0xb0, 0xba, 0x95, 0x6b, 0xe5, 
  0xcd, 0xb8, 0xaf, 0x6e, 0x1c, 0xe6, 0xf6, 0xf6, 0x07, 0x50, 0x43, 0x01, 
  0x3d, 0x93, 0xb7, 0xa7, 0x60, 0x9a, 0x62, 0x01, 0xb0, 0x37, 0x36, 0x43, 
  0x53, 0x23, 0x02, 0x02, 0x3f, 0x64, 0x0d, 0x64, 0xc5, 0x24, 0x5d, 0xed, 
  0xe2, 0xee, 0x66, 0xe3, 0x0c, 0xb0, 0x81, 0xfd, 0xa5, 0x7d, 0xcf, 0xe4, 
  0x3e, 0x2e, 0xc8, 0x71, 0x36, 0x86, 0x81, 0x1f, 0x27, 0x35, 0xd4, 0x86, 
  0xcf, 0x31, 0xde, 0x76, 0x5a, 0xb5, 0xdf, 0x86, 0x02, 0xb4, 0x12, 0xc1, 
  0x4d, 0xe5, 0x7c, 0x92, 0x38, 0x4d, 0xf2, 0x19, 0x07, 0xdf, 0xe1, 0x6f, 
  0xf8, 0xf6, 0x1b, 0x62, 0x06, 0xdc, 0xa9, 0x29, 0x7f, 0x3e, 0x4b, 0xf0, 
  0xe0, 0x3f, 0xf1, 0x47, 0xae, 0x4b, 0x1b, 0xbc, 0x79, 0x65, 0x6d, 0x2d, 
  0x3a, 0xf5, 0xff, 0xff, 0x04, 0x00, 0x00, 0x00, 0x00, 0x01, 0x00, 0x00, 
  0xc6, 0xff, 0xff, 0xff, 0xdb, 0xff, 0xff, 0xff, 0x6d, 0xff, 0xff, 0xff, 
  0x00, 0x00, 0x00, 0x00, 0xd5, 0xff, 0xff, 0xff, 0xb3, 0xff, 0xff, 0xff, 
  0x00, 0x00, 0x00, 0x00, 0x88, 0xff, 0xff, 0xff, 0x00, 0x00, 0x00, 0x00, 
  0xe3, 0xff, 0xff, 0xff, 0x6b, 0xff, 0xff, 0xff, 0xd9, 0xff, 0xff, 0xff, 
  0xce, 0xff, 0xff, 0xff, 0x86, 0xff, 0xff, 0xff, 0xae, 0xff, 0xff, 0xff, 
  0x2a, 0x00, 0x00, 0x00, 0x59, 0xff, 0xff, 0xff, 0xdb, 0xff, 0xff, 0xff, 
  0x73, 0x00, 0x00, 0x00, 0xeb, 0xff, 0xff, 0xff, 0xb7, 0xff, 0xff, 0xff, 
  0xc8, 0xff, 0xff, 0xff, 0x36, 0x01, 0x00, 0x00, 0x13, 0x00, 0x00, 0x00, 
  0x00, 0x00, 0x00, 0x00, 0x51, 0xff, 0xff, 0xff, 0xdb, 0xff, 0xff, 0xff, 
  0x8a, 0xff, 0xff, 0xff, 0xc4, 0x00, 0x00, 0x00, 0x00, 0x00, 0x00, 0x00, 
  0x02, 0x00, 0x00, 0x00, 0xc9, 0xff, 0xff, 0xff, 0x0f, 0x00, 0x00, 0x00, 
  0xd7, 0xff, 0xff, 0xff, 0x8e, 0x00, 0x00, 0x00, 0x15, 0x01, 0x00, 0x00, 
  0xa0, 0xfe, 0xff, 0xff, 0x22, 0x01, 0x00, 0x00, 0x95, 0x00, 0x00, 0x00, 
  0xc1, 0xff, 0xff, 0xff, 0xda, 0xff, 0xff, 0xff, 0xbc, 0xff, 0xff, 0xff, 
  0x6f, 0xff, 0xff, 0xff, 0x16, 0x00, 0x00, 0x00, 0x9e, 0xff, 0xff, 0xff, 
  0x17, 0x00, 0x00, 0x00, 0x88, 0xff, 0xff, 0xff, 0x66, 0xff, 0xff, 0xff, 
  0x00, 0x00, 0x00, 0x00, 0x00, 0x00, 0x00, 0x00, 0xcc, 0xff, 0xff, 0xff, 
  0x00, 0x00, 0x00, 0x00, 0x10, 0x00, 0x00, 0x00, 0xc1, 0xff, 0xff, 0xff, 
  0xb6, 0xff, 0xff, 0xff, 0x00, 0x00, 0x00, 0x00, 0x9c, 0xff, 0xff, 0xff, 
  0x00, 0x00, 0x00, 0x00, 0x00, 0x00, 0x00, 0x00, 0x1c, 0x00, 0x00, 0x00, 
  0xbc, 0xff, 0xff, 0xff, 0x37, 0x00, 0x00, 0x00, 0xa2, 0xff, 0xff, 0xff, 
  0x54, 0x00, 0x00, 0x00, 0x46, 0xf6, 0xff, 0xff, 0x04, 0x00, 0x00, 0x00, 
  0x00, 0x08, 0x00, 0x00, 0x15, 0xc2, 0xf4, 0x1c, 0xdc, 0x3a, 0xc7, 0xf2, 
  0xbf, 0xfb, 0xe0, 0x11, 0xd6, 0x04, 0x9b, 0xfc, 0x51, 0xca, 0xb0, 0x6b, 
  0xfa, 0x4b, 0x7f, 0x6c, 0xbe, 0x48, 0x17, 0x3b, 0x0a, 0x66, 0x48, 0x5c, 
  0x1d, 0x12, 0xf6, 0xa7, 0x92, 0x09, 0x2f, 0xf7, 0xbd, 0x51, 0xca, 0xec, 
  0xb2, 0x1b, 0x03, 0x05, 0x9d, 0xfd, 0xb1, 0xf7, 0x41, 0x3e, 0xc5, 0x34, 
  0xd2, 0xea, 0xc6, 0x60, 0x29, 0xae, 0x51, 0x9a, 0x2a, 0x5e, 0x0b, 0xe0, 
  0xef, 0x44, 0x1f, 0xf8, 0xac, 0xe1, 0xd6, 0xf8, 0xa0, 0xf0, 0x5f, 0x49, 
  0x57, 0x1a, 0x5b, 0xd2, 0x64, 0xe4, 0xef, 0x5f, 0xd2, 0x1f, 0x9c, 0xd7, 
  0x21, 0xa6, 0xd5, 0x62, 0x2b, 0xf4, 0x7f, 0xb8, 0xb0, 0x59, 0x47, 0x0b, 
  0x0d, 0xfb, 0x42, 0x9d, 0x68, 0x0a, 0xb4, 0xc2, 0xa8, 0xdf, 0x11, 0x21, 
  0x5a, 0x21, 0x58, 0x53, 0x6a, 0xe6, 0x9c, 0x06, 0xda, 0x27, 0xe6, 0x98, 
  0xda, 0x31, 0x5d, 0xfe, 0x4b, 0x5a, 0xb4, 0x52, 0x48, 0x9d, 0xf7, 0xf2, 
  0xc4, 0xd3, 0xc7, 0x1b, 0x3c, 0xc8, 0x53, 0xfc, 0xeb, 0x0d, 0xb8, 0x97, 
  0x8d, 0xa9, 0xa7, 0x66, 0xf7, 0x27, 0x8c, 0x30, 0xc6, 0x99, 0xc9, 0x12, 
  0x5c, 0xcb, 0x3d, 0x1a, 0x03, 0xb9, 0x81, 0x72, 0xc5, 0x32, 0x5a, 0xc1, 
  0x99, 0x01, 0xdc, 0x59, 0x6c, 0xe2, 0x19, 0x1d, 0x5e, 0xd5, 0xcb, 0x52, 
  0x4d, 0x99, 0xae, 0x14, 0x15, 0xfc, 0x83, 0x06, 0x7d, 0x53, 0x45, 0x95, 
  0xd3, 0x66, 0x84, 0x67, 0xc7, 0xc4, 0xf7, 0x78, 0xe3, 0x53, 0x59, 0xcd, 
  0x6b, 0xcf, 0x9c, 0xc2, 0xaa, 0xd4, 0x61, 0xe1, 0x71, 0xfb, 0xee, 0x97, 
  0x8a, 0xeb, 0x6a, 0xa2, 0x9d, 0xe1, 0x34, 0x3a, 0xe2, 0x70, 0x99, 0xae, 
  0xef, 0x0c, 0x5e, 0xe7, 0xed, 0x6e, 0x09, 0x3c, 0x81, 0x27, 0xb0, 0xf1, 
  0x34, 0x39, 0x11, 0x0c, 0x26, 0x6a, 0x23, 0x7d, 0x45, 0xe6, 0xb2, 0x44, 
  0x99, 0x3e, 0x3a, 0xaa, 0xb0, 0xbd, 0x44, 0x1e, 0x09, 0xb6, 0xeb, 0x8b, 
  0xe0, 0xbb, 0x15, 0x81, 0xe0, 0x36, 0xe0, 0x0c, 0xbd, 0x28, 0x66, 0xf0, 
  0xa5, 0xba, 0xf4, 0x08, 0x4b, 0xca, 0x9d, 0xed, 0x53, 0xb6, 0x6b, 0xa2, 
  0x72, 0x55, 0xcc, 0x51, 0x4c, 0xc3, 0x6a, 0x1d, 0xd0, 0xb8, 0xa3, 0xc9, 
  0xce, 0xeb, 0xa0, 0xca, 0xe7, 0x32, 0x43, 0x74, 0x06, 0xe5, 0xde, 0xc3, 
  0x6d, 0x03, 0x9d, 0x39, 0x24, 0x75, 0x59, 0x3c, 0xdc, 0xfb, 0x10, 0xd7, 
  0xf3, 0x96, 0xcc, 0xaa, 0xea, 0x47, 0x9f, 0xbe, 0x86, 0x22, 0x01, 0x81, 
  0xac, 0xce, 0x03, 0x18, 0xa3, 0xe1, 0xb8, 0x6d, 0x45, 0x2a, 0x67, 0xfc, 
  0xc4, 0xc9, 0x8c, 0xf9, 0x2f, 0x2f, 0x89, 0xca, 0xcb, 0x30, 0x3d, 0xe9, 
  0xea, 0x41, 0x95, 0xe8, 0xeb, 0xc7, 0x5a, 0xbe, 0xff, 0x30, 0x04, 0xe5, 
  0x90, 0x02, 0xae, 0x9a, 0x53, 0xe1, 0xee, 0xeb, 0x3b, 0x23, 0xaa, 0xc3, 
  0x03, 0xe5, 0x03, 0x37, 0xc6, 0x6e, 0xb4, 0x69, 0xf4, 0x77, 0xba, 0x1a, 
  0x0d, 0x0f, 0x1d, 0x44, 0x31, 0xb0, 0xd0, 0xf9, 0x20, 0x8d, 0xde, 0xdd, 
  0xfe, 0xcd, 0x65, 0x7f, 0xd9, 0xc0, 0x12, 0x17, 0x68, 0xc8, 0xfc, 0x0d, 
  0x11, 0x52, 0x3c, 0xa9, 0x3d, 0xbe, 0x7f, 0x46, 0xb1, 0x3a, 0x3e, 0xf1, 
  0x4e, 0x27, 0x57, 0xab, 0xc4, 0x57, 0x04, 0x00, 0x06, 0x4a, 0x06, 0x4f, 
  0xbe, 0xe1, 0xb9, 0xb5, 0x1d, 0x36, 0xdb, 0xdf, 0x62, 0xa2, 0xe3, 0x9c, 
  0xad, 0x96, 0x1f, 0x4e, 0x6d, 0x2d, 0x7e, 0xb4, 0xaf, 0xab, 0x4c, 0x23, 
  0x4b, 0x9f, 0xa7, 0x4b, 0xcc, 0x92, 0xa1, 0xd3, 0x3b, 0x66, 0xf7, 0x97, 
  0xda, 0xe4, 0x40, 0x67, 0x32, 0xf9, 0x52, 0x54, 0x21, 0xba, 0x29, 0x44, 
  0x5b, 0x4d, 0xa4, 0x4e, 0x5f, 0xdd, 0xf7, 0xa5, 0x00, 0xe4, 0xe4, 0x81, 
  0x4e, 0x29, 0x34, 0xd0, 0x2f, 0x54, 0x66, 0x09, 0xca, 0x4b, 0x81, 0x23, 
  0x20, 0x59, 0xd5, 0xe8, 0xac, 0xcc, 0x01, 0x9d, 0x18, 0xb3, 0x3f, 0x12, 
  0xe1, 0xb6, 0x62, 0x91, 0xe7, 0xde, 0xaf, 0x24, 0x11, 0x77, 0xef, 0xa5, 
  0x81, 0xa7, 0x42, 0xa2, 0x96, 0x11, 0x1c, 0x9f, 0x39, 0x94, 0xe5, 0x29, 
  0x92, 0x2d, 0xb6, 0x91, 0xab, 0x88, 0x63, 0xf7, 0xc0, 0x0a, 0xd1, 0x47, 
  0x35, 0xb1, 0xbb, 0x50, 0xfc, 0x7f, 0x00, 0x5c, 0xc8, 0xc5, 0x22, 0x40, 
  0xdd, 0xf1, 0x25, 0x2f, 0x30, 0x2c, 0xcc, 0x58, 0xde, 0xdf, 0xfd, 0xdb, 
  0xe2, 0xb8, 0x6b, 0x56, 0x18, 0x11, 0xfa, 0xcc, 0x27, 0x59, 0xe8, 0xf0, 
  0x30, 0x3e, 0x77, 0x60, 0xe2, 0x5d, 0x57, 0x11, 0x0b, 0x51, 0xee, 0xc0, 
  0x22, 0xc6, 0x27, 0xde, 0xee, 0xfc, 0x07, 0x30, 0xdd, 0xf3, 0xcb, 0xc1, 
  0x09, 0xf4, 0xd9, 0x26, 0xdc, 0x61, 0x35, 0xb3, 0xb0, 0x3d, 0xdc, 0x47, 
  0x9c, 0x14, 0xea, 0x34, 0x25, 0x45, 0x67, 0x30, 0x5c, 0xdc, 0x4e, 0x35, 
  0x02, 0x5d, 0xa4, 0xe4, 0xb1, 0xa3, 0x51, 0xec, 0x4a, 0x58, 0x06, 0x5a, 
  0x06, 0x42, 0x55, 0xa4, 0x6f, 0xdb, 0x60, 0x7f, 0xfa, 0x05, 0xca, 0xb1, 
  0xd5, 0xcc, 0xf0, 0x02, 0xf9, 0xcc, 0x3b, 0xcf, 0x5f, 0x20, 0xc5, 0xc0, 
  0x31, 0x57, 0x11, 0x25, 0x07, 0xa0, 0xe5, 0x9d, 0xe7, 0x38, 0x03, 0xa4, 
  0xd8, 0x2f, 0xca, 0x18, 0xd4, 0xb9, 0x0f, 0x14, 0x57, 0xeb, 0xc3, 0xcb, 
  0xc9, 0xcc, 0x0e, 0xcd, 0xad, 0xd6, 0x3a, 0xfb, 0x24, 0xda, 0xce, 0xd1, 
  0xc3, 0xab, 0x4b, 0xaf, 0xc4, 0xc4, 0x1c, 0xc7, 0xde, 0xd8, 0xa4, 0xa9, 
  0x5c, 0x1b, 0x08, 0xc7, 0xcd, 0xfc, 0xd9, 0x68, 0x50, 0x04, 0xf7, 0xe4, 
  0x36, 0x0a, 0x53, 0xd0, 0xd7, 0x1c, 0x60, 0xbf, 0x39, 0xd8, 0xbe, 0x70, 
  0xbc, 0xca, 0x4d, 0x7f, 0xba, 0x0c, 0x31, 0xad, 0x9e, 0xfe, 0xfb, 0xc3, 
  0x5e, 0xc5, 0x77, 0x77, 0xd0, 0x36, 0xb1, 0xe7, 0x2a, 0x40, 0x92, 0xc3, 
  0x97, 0x01, 0x6f, 0xd5, 0xbb, 0xd0, 0x8b, 0x83, 0x97, 0xa7, 0xf8, 0xbc, 
  0x66, 0x81, 0xda, 0x76, 0x8e, 0x41, 0x3d, 0x47, 0xf8, 0xc6, 0x15, 0xa6, 
  0x06, 0x1f, 0x43, 0x53, 0xe6, 0xe6, 0x12, 0x0a, 0x3e, 0x05, 0x93, 0x1d, 
  0x68, 0x5d, 0xfa, 0x21, 0x0f, 0xf2, 0x3a, 0x16, 0x59, 0xd5, 0x12, 0xad, 
  0x1f, 0xfb, 0xdd, 0xf0, 0xfc, 0x9e, 0x66, 0x7f, 0xf7, 0x44, 0x13, 0x50, 
  0xa4, 0xf7, 0x29, 0x24, 0xc9, 0x62, 0xe3, 0xb9, 0x12, 0xb6, 0xba, 0x0e, 
  0xfc, 0xe8, 0xad, 0xbd, 0xe7, 0x17, 0xff, 0x43, 0xa0, 0x01, 0x9c, 0xa8, 
  0x9c, 0xb6, 0x51, 0x3c, 0xd7, 0x6c, 0x69, 0xac, 0x54, 0xfd, 0xea, 0xdd, 
  0x2c, 0x4f, 0xa5, 0x6a, 0xcb, 0x70, 0x5a, 0xa7, 0x51, 0x25, 0x4e, 0x88, 
  0x17, 0x93, 0xbb, 0x74, 0x6f, 0x1b, 0xe5, 0x87, 0xbe, 0xe9, 0xed, 0xfc, 
  0x45, 0x12, 0xb7, 0x4c, 0xa0, 0xf0, 0x59, 0xea, 0x30, 0x77, 0xec, 0x22, 
  0x10, 0x59, 0xff, 0xda, 0x81, 0x17, 0x64, 0x31, 0xbc, 0xb0, 0x10, 0x3e, 
  0x32, 0x29, 0xe3, 0xeb, 0x12, 0x04, 0xa4, 0x14, 0x0e, 0x2d, 0x98, 0xed, 
  0xda, 0x34, 0x21, 0xf2, 0xb3, 0x34, 0xf9, 0xbe, 0x89, 0xf0, 0x72, 0x30, 
  0x52, 0x04, 0x04, 0xde, 0xd5, 0x53, 0xbd, 0x98, 0xa1, 0x6f, 0x60, 0xd0, 
  0xbd, 0xb0, 0x88, 0xd9, 0x3f, 0x59, 0xf7, 0xa9, 0x14, 0xac, 0xd0, 0xf6, 
  0x01, 0x13, 0xd8, 0x50, 0xd6, 0x59, 0xe0, 0x9d, 0xec, 0x91, 0x49, 0x16, 
  0x68, 0x74, 0x88, 0xd1, 0x92, 0x0e, 0xe7, 0x25, 0x4b, 0x65, 0x89, 0xf3, 
  0x27, 0x90, 0x40, 0xaa, 0xe4, 0xf6, 0x4e, 0xd6, 0xa5, 0xb7, 0xcb, 0x0a, 
  0xe4, 0xd3, 0x47, 0x81, 0x8b, 0x53, 0x1f, 0xe7, 0xfa, 0x83, 0x67, 0x60, 
  0x70, 0x96, 0x1c, 0x86, 0x9e, 0x65, 0xde, 0x0c, 0x53, 0x4e, 0x49, 0x1b, 
  0xe1, 0xe8, 0x9f, 0x58, 0xab, 0xae, 0x05, 0x52, 0x1f, 0x05, 0x66, 0x45, 
  0x36, 0x30, 0x25, 0x16, 0xfc, 0xa0, 0x21, 0x32, 0xa8, 0x05, 0x81, 0xfb, 
  0xb7, 0xfd, 0x4d, 0x47, 0x14, 0x81, 0x09, 0x9a, 0x43, 0x6c, 0xdf, 0xd9, 
  0x9f, 0x8b, 0x68, 0x1f, 0xe4, 0x4d, 0xaa, 0xfa, 0x72, 0x5d, 0xdb, 0x54, 
  0xd1, 0xe2, 0x96, 0xe1, 0x10, 0x70, 0x42, 0xae, 0x31, 0xe6, 0x8c, 0xaf, 
  0xee, 0xc0, 0xd1, 0x84, 0x0d, 0x08, 0xe1, 0x14, 0x0c, 0x66, 0x90, 0x9e, 
  0xbd, 0x72, 0x48, 0xb0, 0xaa, 0xd1, 0xc6, 0x2d, 0x9e, 0x26, 0x00, 0x52, 
  0x94, 0xc7, 0x81, 0x11, 0x08, 0xe7, 0x38, 0xb9, 0x1b, 0xd2, 0xb3, 0x2f, 
  0xa7, 0x04, 0xda, 0x33, 0xca, 0xf6, 0xb6, 0x6f, 0x04, 0xe8, 0xe6, 0xf6, 
  0x7e, 0xab, 0xca, 0xb7, 0x2b, 0x58, 0x33, 0xe8, 0x06, 0xb8, 0xa4, 0xeb, 
  0xa8, 0x5c, 0xb4, 0xb9, 0x52, 0x99, 0xf0, 0xe4, 0xc8, 0xc2, 0x5e, 0xf3, 
  0xb0, 0x84, 0x33, 0xc0, 0xec, 0xbd, 0xf3, 0x0f, 0x02, 0xbb, 0x49, 0xad, 
  0x24, 0xfb, 0xb1, 0x7f, 0x33, 0x2d, 0xf0, 0x2c, 0x26, 0x97, 0x99, 0x34, 
  0x67, 0xd3, 0xef, 0x71, 0xbf, 0xe0, 0x4d, 0xd1, 0x94, 0x2d, 0xda, 0x9b, 
  0xd9, 0x48, 0xe2, 0xb1, 0x1e, 0x40, 0xb0, 0x3c, 0xfe, 0x61, 0xfb, 0xc2, 
  0xb7, 0x81, 0x22, 0x25, 0xbb, 0xc1, 0x83, 0x49, 0x61, 0x41, 0x33, 0x2f, 
  0xbc, 0x60, 0xd7, 0x04, 0x26, 0x30, 0x8a, 0xb3, 0x0a, 0x35, 0x78, 0xd9, 
  0x6d, 0xb4, 0xb2, 0x4e, 0xa2, 0xbf, 0x49, 0x2b, 0xe1, 0x89, 0x25, 0xdb, 
  0xd8, 0x55, 0xf8, 0x4b, 0xa6, 0x0c, 0x32, 0x6e, 0x16, 0xb8, 0x90, 0x38, 
  0xaf, 0x0a, 0x8f, 0x24, 0xe7, 0x34, 0x25, 0x12, 0xa7, 0xe0, 0x09, 0xb5, 
  0xba, 0x5e, 0xea, 0xdd, 0x81, 0x5a, 0x54, 0x61, 0x5b, 0x0c, 0xf3, 0xbb, 
  0x37, 0xb3, 0x29, 0x4e, 0xd9, 0x27, 0x32, 0x09, 0xfe, 0x9d, 0xac, 0x6c, 
  0xce, 0x8a, 0x9d, 0x92, 0x5d, 0x4a, 0xce, 0x6a, 0xac, 0xaa, 0x32, 0xaf, 
  0xd4, 0xca, 0xd2, 0x06, 0xdb, 0x03, 0x19, 0xa8, 0xfa, 0xd0, 0xb5, 0x98, 
  0x0f, 0xa0, 0x34, 0x5f, 0x2c, 0x46, 0x9e, 0x3a, 0x16, 0xe5, 0xd5, 0x12, 
  0x51, 0xc2, 0x8f, 0xbb, 0x11, 0x4c, 0x74, 0x53, 0xf9, 0x6c, 0x9a, 0xf2, 
  0x8c, 0x48, 0x38, 0xc1, 0x7c, 0x8c, 0x3a, 0xc8, 0x9a, 0xca, 0xaa, 0x5e, 
  0xf9, 0x4c, 0x20, 0x62, 0x8b, 0x12, 0xd5, 0xc7, 0xdf, 0x9a, 0x3a, 0xba, 
  0xc0, 0x65, 0x04, 0xcb, 0xa6, 0x26, 0x11, 0xec, 0x1c, 0x19, 0x72, 0x6a, 
  0xb7, 0x78, 0x28, 0xde, 0xa7, 0xab, 0x94, 0x36, 0x7e, 0x59, 0x86, 0x28, 
  0x43, 0x6c, 0x1b, 0x21, 0xf3, 0x3a, 0xbd, 0x81, 0x61, 0xb5, 0xd1, 0xc8, 
  0xcd, 0x16, 0xb7, 0xbd, 0xd0, 0x37, 0x7a, 0x6a, 0xf7, 0x6b, 0x08, 0xbd, 
  0xee, 0x4e, 0xac, 0xef, 0x11, 0x8a, 0xc8, 0x49, 0xda, 0xd4, 0xde, 0xf4, 
  0x74, 0x00, 0xca, 0xd2, 0xab, 0x81, 0x8e, 0xc9, 0x6a, 0x5b, 0xdc, 0xbc, 
  0x48, 0x60, 0xbf, 0x84, 0x51, 0x6c, 0x94, 0xc3, 0x0f, 0xc3, 0x07, 0xb9, 
  0x11, 0x64, 0xaf, 0xa6, 0xb6, 0xd9, 0x84, 0x96, 0x1a, 0xfa, 0xbe, 0x22, 
  0x1c, 0x6f, 0x8e, 0xf9, 0x31, 0xe3, 0x5a, 0x71, 0x88, 0x15, 0xfa, 0x1f, 
  0x5b, 0x69, 0x5f, 0x21, 0xe2, 0x19, 0x26, 0xff, 0x6a, 0x75, 0x16, 0xa2, 
  0x56, 0x82, 0x42, 0x9a, 0xe7, 0xff, 0xec, 0xc4, 0x31, 0x81, 0x2f, 0x15, 
  0xa2, 0xf7, 0x02, 0x49, 0x16, 0xd9, 0xb9, 0x5d, 0xa4, 0x36, 0x6b, 0xf3, 
  0x21, 0x5c, 0x5d, 0x7c, 0x47, 0x43, 0xd5, 0xb8, 0x0c, 0x6e, 0x84, 0xcb, 
  0x67, 0xe8, 0x3c, 0xf2, 0xf4, 0xef, 0xb1, 0xa3, 0xf2, 0x1d, 0xfb, 0xe2, 
  0x8c, 0x81, 0xa4, 0x25, 0x1a, 0x58, 0x60, 0x60, 0xa0, 0xc8, 0x44, 0x4c, 
  0x33, 0x4f, 0x05, 0xc1, 0x46, 0x15, 0xa9, 0x51, 0xee, 0xc6, 0xbd, 0xc5, 
  0xb3, 0x97, 0xc9, 0xa3, 0x83, 0x9d, 0x32, 0x4e, 0xe9, 0x7e, 0x45, 0xb0, 
  0xfb, 0xc2, 0xb7, 0x02, 0x03, 0x97, 0x20, 0xea, 0x98, 0xee, 0x62, 0x45, 
  0x2b, 0xc3, 0xb0, 0xc7, 0x0f, 0x1c, 0xcd, 0x7b, 0x97, 0x1f, 0x3f, 0x58, 
  0x7b, 0x1e, 0x5d, 0xb2, 0x6a, 0x26, 0xa9, 0x66, 0x59, 0xe0, 0xd1, 0xeb, 
  0x39, 0xd1, 0x51, 0x34, 0x1e, 0x45, 0xa6, 0xab, 0xd4, 0xf4, 0xe3, 0x10, 
  0xeb, 0x28, 0xe8, 0x7f, 0xb6, 0x22, 0xab, 0x5c, 0x50, 0x85, 0xf9, 0x2d, 
  0x13, 0x45, 0xf1, 0x22, 0xc3, 0x1b, 0xc8, 0x4b, 0x34, 0x29, 0x99, 0x70, 
  0xcf, 0x23, 0xd3, 0x2c, 0x64, 0xcd, 0xff, 0xd8, 0x05, 0x69, 0xb2, 0xe0, 
  0xe0, 0x04, 0xa0, 0x41, 0x0e, 0x39, 0x17, 0x3e, 0xd2, 0xb7, 0x30, 0x18, 
  0x59, 0x1d, 0x1b, 0x0e, 0x2d, 0x61, 0xe6, 0xcb, 0xfa, 0x63, 0x85, 0x65, 
  0xa3, 0x57, 0x6d, 0xcb, 0xc6, 0x55, 0x38, 0x54, 0x0b, 0x1f, 0x8f, 0x81, 
  0xd3, 0x8a, 0x46, 0x3c, 0xed, 0x65, 0xa2, 0x40, 0xd4, 0x9a, 0xd0, 0x15, 
  0xae, 0x03, 0xa1, 0xc1, 0xe1, 0xbb, 0xd5, 0x1c, 0x1d, 0x9d, 0x25, 0x5e, 
  0x61, 0x1f, 0x34, 0xce, 0x92, 0x10, 0x1a, 0x7f, 0x16, 0x29, 0x4d, 0x46, 
  0xbe, 0xc4, 0xc3, 0x8b, 0x92, 0xa3, 0xbd, 0x64, 0xb9, 0x67, 0x1d, 0x1a, 
  0xd2, 0x4c, 0xd6, 0x17, 0xa5, 0x9b, 0xca, 0xb2, 0x09, 0x30, 0x59, 0xd1, 
  0x1d, 0xb2, 0x51, 0x11, 0xbb, 0xc4, 0xd8, 0x1d, 0xb3, 0x5a, 0x0e, 0xc2, 
  0x97, 0x76, 0xaf, 0xe4, 0x40, 0xa8, 0xa5, 0x1e, 0xe6, 0x4e, 0x3e, 0x03, 
  0xdb, 0x25, 0x15, 0xe1, 0x50, 0xfe, 0x13, 0x12, 0x21, 0x0d, 0xdf, 0xc5, 
  0xe0, 0xe7, 0xa2, 0xf0, 0xe1, 0x48, 0xbe, 0xb7, 0x4b, 0x15, 0x4d, 0x56, 
  0xe3, 0x33, 0xc6, 0x0c, 0x1d, 0xfd, 0x04, 0xce, 0xff, 0x54, 0xd5, 0xbe, 
  0x90, 0x06, 0xe0, 0xa9, 0xd6, 0xee, 0xa8, 0x01, 0x2c, 0x81, 0x43, 0xfc, 
  0xbc, 0xd0, 0x4a, 0xfe, 0x50, 0x29, 0x0d, 0x56, 0xa6, 0xfc, 0x06, 0x03, 
  0x1b, 0x0e, 0x27, 0x16, 0x44, 0xef, 0xdf, 0xc9, 0xa4, 0x4c, 0x12, 0x24, 
  0x3c, 0xab, 0x11, 0x92, 0x06, 0xa4, 0xe9, 0xcd, 0x51, 0x3a, 0x29, 0xab, 
  0x3a, 0xe8, 0xdb, 0xca, 0x65, 0x26, 0x7f, 0x2c, 0xb5, 0x04, 0x93, 0xfa, 
  0x3c, 0xbd, 0x69, 0x92, 0x25, 0x6e, 0x92, 0x18, 0x55, 0x37, 0xc5, 0x2e, 
  0x92, 0x07, 0xd6, 0xd5, 0x14, 0xb4, 0x65, 0x0e, 0x67, 0xae, 0xf0, 0xc9, 
  0x64, 0xce, 0xc5, 0x9d, 0xd5, 0x56, 0x42, 0xac, 0x4f, 0xdd, 0x94, 0xb6, 
  0x13, 0x32, 0xc4, 0x2e, 0x9f, 0x23, 0x45, 0x48, 0xde, 0x85, 0x23, 0x8d, 
  0x29, 0x24, 0xc1, 0xfa, 0xc6, 0x6f, 0x4a, 0x00, 0xc2, 0xd5, 0x0e, 0x85, 
  0xb5, 0xbe, 0x0a, 0xdc, 0x6b, 0x81, 0xe8, 0x99, 0x70, 0xd1, 0x46, 0x03, 
  0xbb, 0x58, 0x5c, 0xb7, 0xd3, 0xb0, 0x9c, 0x68, 0xa1, 0xd4, 0xab, 0x7d, 
  0x1a, 0x51, 0xba, 0xfa, 0xb1, 0x81, 0xec, 0xa4, 0x36, 0xd5, 0x32, 0xfa, 
  0x37, 0x89, 0x5c, 0xd0, 0xb8, 0xac, 0xd8, 0x8f, 0xf7, 0xaf, 0x35, 0x46, 
  0x10, 0x61, 0x79, 0x7f, 0xab, 0x56, 0xb4, 0xa7, 0x6e, 0x02, 0x53, 0x65, 
  0xac, 0xb8, 0x02, 0xbd, 0x8b, 0xb3, 0xe9, 0x2f, 0x3e, 0xe1, 0x89, 0xf4, 
  0xcc, 0xae, 0xea, 0x4a, 0x4e, 0x68, 0x12, 0xff, 0xa5, 0x37, 0xac, 0xdc, 
  0x57, 0x26, 0x07, 0xa8, 0x70, 0x4e, 0xa1, 0x2d, 0x1e, 0xdb, 0xc0, 0x1a, 
  0x0e, 0xda, 0x8e, 0xd4, 0x5f, 0x7a, 0xde, 0x91, 0x4a, 0x59, 0x65, 0xc6, 
  0x52, 0xfe, 0xff, 0xff, 0x04, 0x00, 0x00, 0x00, 0x80, 0x00, 0x00, 0x00, 
  0xeb, 0xfe, 0xff, 0xff, 0xf6, 0x01, 0x00, 0x00, 0xe0, 0xfd, 0xff, 0xff, 
  0xa1, 0x01, 0x00, 0x00, 0x72, 0x00, 0x00, 0x00, 0x0d, 0xfe, 0xff, 0xff, 
  0xe5, 0x01, 0x00, 0x00, 0x10, 0xff, 0xff, 0xff, 0x36, 0xff, 0xff, 0xff, 
  0xd6, 0x02, 0x00, 0x00, 0x2f, 0x01, 0x00, 0x00, 0xde, 0x00, 0x00, 0x00, 
  0xc6, 0xfe, 0xff, 0xff, 0x36, 0x01, 0x00, 0x00, 0x61, 0xff, 0xff, 0xff, 
  0x97, 0xfd, 0xff, 0xff, 0x73, 0x01, 0x00, 0x00, 0x61, 0xff, 0xff, 0xff, 
  0xdc, 0x00, 0x00, 0x00, 0xeb, 0xfe, 0xff, 0xff, 0x27, 0xfe, 0xff, 0xff, 
  0x5a, 0xff, 0xff, 0xff, 0x5e, 0xff, 0xff, 0xff, 0x6f, 0x00, 0x00, 0x00, 
  0xdd, 0x00, 0x00, 0x00, 0x86, 0x01, 0x00, 0x00, 0x2c, 0x00, 0x00, 0x00, 
  0x2d, 0x01, 0x00, 0x00, 0x33, 0xff, 0xff, 0xff, 0x8c, 0xff, 0xff, 0xff, 
  0x7a, 0xfe, 0xff, 0xff, 0x9a, 0x00, 0x00, 0x00, 0xde, 0xfe, 0xff, 0xff, 
  0x04, 0x00, 0x00, 0x00, 0x60, 0x00, 0x00, 0x00, 0x32, 0x5a, 0x3a, 0x21, 
  0xd7, 0x29, 0x86, 0x30, 0xd5, 0x05, 0x00, 0x53, 0x41, 0x31, 0x7f, 0x2e, 
  0xc4, 0x49, 0x9b, 0x15, 0x6b, 0x18, 0x9d, 0x73, 0x73, 0x3a, 0x51, 0x9b, 
  0x3e, 0x35, 0x35, 0xe9, 0xf7, 0x31, 0x52, 0x78, 0x5d, 0xa8, 0xac, 0xcf, 
  0x59, 0x1f, 0x03, 0x61, 0x89, 0x02, 0xac, 0x81, 0x54, 0x00, 0xfa, 0x75, 
  0x5a, 0x82, 0x66, 0xe3, 0x67, 0x31, 0xd2, 0x93, 0x85, 0x22, 0x98, 0x76, 
  0x45, 0x7b, 0xa9, 0x8a, 0xb4, 0x97, 0x20, 0x3a, 0x0b, 0x7c, 0x3e, 0xf0, 
  0xb1, 0x3a, 0x16, 0x20, 0x81, 0xcd, 0x4e, 0xd7, 0xfa, 0x0e, 0x28, 0x70, 
  0x86, 0xfe, 0x93, 0xc9, 0x9b, 0xe6, 0xb6, 0x60, 0x4a, 0xff, 0xff, 0xff, 
  0x04, 0x00, 0x00, 0x00, 0x0c, 0x00, 0x00, 0x00, 0x67, 0xff, 0xff, 0xff, 
  0x47, 0x00, 0x00, 0x00, 0x99, 0x00, 0x00, 0x00, 0x62, 0xff, 0xff, 0xff, 
  0x04, 0x00, 0x00, 0x00, 0x08, 0x00, 0x00, 0x00, 0xff, 0xff, 0xff, 0xff, 
  0x20, 0x00, 0x00, 0x00, 0x9c, 0xef, 0xff, 0xff, 0xa0, 0xef, 0xff, 0xff, 
  0x0f, 0x00, 0x00, 0x00, 0x4d, 0x4c, 0x49, 0x52, 0x20, 0x43, 0x6f, 0x6e, 
  0x76, 0x65, 0x72, 0x74, 0x65, 0x64, 0x2e, 0x00, 0x01, 0x00, 0x00, 0x00, 
  0x14, 0x00, 0x00, 0x00, 0x00, 0x00, 0x0e, 0x00, 0x18, 0x00, 0x14, 0x00, 
  0x10, 0x00, 0x0c, 0x00, 0x08, 0x00, 0x04, 0x00, 0x0e, 0x00, 0x00, 0x00, 
  0x14, 0x00, 0x00, 0x00, 0x1c, 0x00, 0x00, 0x00, 0x50, 0x01, 0x00, 0x00, 
  0x54, 0x01, 0x00, 0x00, 0x58, 0x01, 0x00, 0x00, 0x04, 0x00, 0x00, 0x00, 
  0x6d, 0x61, 0x69, 0x6e, 0x00, 0x00, 0x00, 0x00, 0x05, 0x00, 0x00, 0x00, 
  0x14, 0x01, 0x00, 0x00, 0xc4, 0x00, 0x00, 0x00, 0x78, 0x00, 0x00, 0x00, 
  0x40, 0x00, 0x00, 0x00, 0x04, 0x00, 0x00, 0x00, 0x5a, 0xff, 0xff, 0xff, 
  0x1c, 0x00, 0x00, 0x00, 0x00, 0x00, 0x00, 0x09, 0x1c, 0x00, 0x00, 0x00, 
  0x20, 0x00, 0x00, 0x00, 0x02, 0x00, 0x00, 0x00, 0x00, 0x00, 0x06, 0x00, 
  0x08, 0x00, 0x04, 0x00, 0x06, 0x00, 0x00, 0x00, 0x00, 0x00, 0x80, 0x3f, 
  0x01, 0x00, 0x00, 0x00, 0x0c, 0x00, 0x00, 0x00, 0x01, 0x00, 0x00, 0x00, 
  0x0b, 0x00, 0x00, 0x00, 0x92, 0xff, 0xff, 0xff, 0x14, 0x00, 0x00, 0x00, 
  0x00, 0x00, 0x00, 0x08, 0x10, 0x00, 0x00, 0x00, 0x14, 0x00, 0x00, 0x00, 
  0x01, 0x00, 0x00, 0x00, 0x5c, 0xf0, 0xff, 0xff, 0x01, 0x00, 0x00, 0x00, 
  0x0b, 0x00, 0x00, 0x00, 0x03, 0x00, 0x00, 0x00, 0x0a, 0x00, 0x00, 0x00, 
  0x03, 0x00, 0x00, 0x00, 0x02, 0x00, 0x00, 0x00, 0xc6, 0xff, 0xff, 0xff, 
  0x14, 0x00, 0x00, 0x00, 0x00, 0x00, 0x00, 0x08, 0x14, 0x00, 0x00, 0x00, 
  0x18, 0x00, 0x00, 0x00, 0x01, 0x00, 0x00, 0x00, 0xb6, 0xff, 0xff, 0xff, 
  0x00, 0x00, 0x00, 0x01, 0x01, 0x00, 0x00, 0x00, 0x0a, 0x00, 0x00, 0x00, 
  0x03, 0x00, 0x00, 0x00, 0x09, 0x00, 0x00, 0x00, 0x05, 0x00, 0x00, 0x00, 
  0x04, 0x00, 0x00, 0x00, 0x00, 0x00, 0x0e, 0x00, 0x1a, 0x00, 0x14, 0x00, 
  0x10, 0x00, 0x0c, 0x00, 0x0b, 0x00, 0x04, 0x00, 0x0e, 0x00, 0x00, 0x00, 
  0x1c, 0x00, 0x00, 0x00, 0x00, 0x00, 0x00, 0x08, 0x1c, 0x00, 0x00, 0x00, 
  0x20, 0x00, 0x00, 0x00, 0x01, 0x00, 0x00, 0x00, 0x00, 0x00, 0x06, 0x00, 
  0x08, 0x00, 0x07, 0x00, 0x06, 0x00, 0x00, 0x00, 0x00, 0x00, 0x00, 0x01, 
  0x01, 0x00, 0x00, 0x00, 0x09, 0x00, 0x00, 0x00, 0x03, 0x00, 0x00, 0x00, 
  0x08, 0x00, 0x00, 0x00, 0x07, 0x00, 0x00, 0x00, 0x06, 0x00, 0x00, 0x00, 
  0x00, 0x00, 0x0a, 0x00, 0x0c, 0x00, 0x00, 0x00, 0x08, 0x00, 0x04, 0x00, 
  0x0a, 0x00, 0x00, 0x00, 0x08, 0x00, 0x00, 0x00, 0x0c, 0x00, 0x00, 0x00, 
  0x01, 0x00, 0x00, 0x00, 0x08, 0x00, 0x00, 0x00, 0x02, 0x00, 0x00, 0x00, 
  0x00, 0x00, 0x00, 0x00, 0x01, 0x00, 0x00, 0x00, 0x01, 0x00, 0x00, 0x00, 
  0x0c, 0x00, 0x00, 0x00, 0x01, 0x00, 0x00, 0x00, 0x00, 0x00, 0x00, 0x00, 
  0x0d, 0x00, 0x00, 0x00, 0xfc, 0x0e, 0x00, 0x00, 0xa0, 0x0e, 0x00, 0x00, 
  0x0c, 0x0e, 0x00, 0x00, 0x90, 0x0d, 0x00, 0x00, 0xbc, 0x0b, 0x00, 0x00, 
  0xe0, 0x09, 0x00, 0x00, 0x8c, 0x06, 0x00, 0x00, 0x30, 0x03, 0x00, 0x00, 
  0xac, 0x02, 0x00, 0x00, 0xe8, 0x01, 0x00, 0x00, 0x24, 0x01, 0x00, 0x00, 
  0x80, 0x00, 0x00, 0x00, 0x04, 0x00, 0x00, 0x00, 0x4e, 0xf1, 0xff, 0xff, 
  0x00, 0x00, 0x00, 0x01, 0x18, 0x00, 0x00, 0x00, 0x20, 0x00, 0x00, 0x00, 
  0x3c, 0x00, 0x00, 0x00, 0x0d, 0x00, 0x00, 0x00, 0x00, 0x00, 0x00, 0x09, 
  0x50, 0x00, 0x00, 0x00, 0x02, 0x00, 0x00, 0x00, 0xff, 0xff, 0xff, 0xff, 
  0x03, 0x00, 0x00, 0x00, 0x34, 0xf1, 0xff, 0xff, 0x08, 0x00, 0x00, 0x00, 
  0x10, 0x00, 0x00, 0x00, 0x01, 0x00, 0x00, 0x00, 0x80, 0xff, 0xff, 0xff, 
  0xff, 0xff, 0xff, 0xff, 0x01, 0x00, 0x00, 0x00, 0x00, 0x00, 0x80, 0x3b, 
  0x1b, 0x00, 0x00, 0x00, 0x53, 0x74, 0x61, 0x74, 0x65, 0x66, 0x75, 0x6c, 
  0x50, 0x61, 0x72, 0x74, 0x69, 0x74, 0x69, 0x6f, 0x6e, 0x65, 0x64, 0x43, 
  0x61, 0x6c, 0x6c, 0x5f, 0x31, 0x3a, 0x30, 0x00, 0x02, 0x00, 0x00, 0x00, 
  0x01, 0x00, 0x00, 0x00, 0x03, 0x00, 0x00, 0x00, 0xc6, 0xf1, 0xff, 0xff, 
  0x00, 0x00, 0x00, 0x01, 0x18, 0x00, 0x00, 0x00, 0x20, 0x00, 0x00, 0x00, 
  0x3c, 0x00, 0x00, 0x00, 0x0c, 0x00, 0x00, 0x00, 0x00, 0x00, 0x00, 0x09, 
  0x78, 0x00, 0x00, 0x00, 0x02, 0x00, 0x00, 0x00, 0xff, 0xff, 0xff, 0xff, 
  0x03, 0x00, 0x00, 0x00, 0xac, 0xf1, 0xff, 0xff, 0x08, 0x00, 0x00, 0x00, 
  0x10, 0x00, 0x00, 0x00, 0x01, 0x00, 0x00, 0x00, 0xd5, 0xff, 0xff, 0xff, 
  0xff, 0xff, 0xff, 0xff, 0x01, 0x00, 0x00, 0x00, 0x5d, 0x77, 0x21, 0x3d, 
  0x40, 0x00, 0x00, 0x00, 0x73, 0x65, 0x71, 0x75, 0x65, 0x6e, 0x74, 0x69, 
  0x61, 0x6c, 0x5f, 0x31, 0x5f, 0x31, 0x2f, 0x64, 0x65, 0x6e, 0x73, 0x65, 
  0x5f, 0x34, 0x5f, 0x31, 0x2f, 0x4d, 0x61, 0x74, 0x4d, 0x75, 0x6c, 0x3b, 
  0x73, 0x65, 0x71, 0x75, 0x65, 0x6e, 0x74, 0x69, 0x61, 0x6c, 0x5f, 0x31, 
  0x5f, 0x31, 0x2f, 0x64, 0x65, 0x6e, 0x73, 0x65, 0x5f, 0x34, 0x5f, 0x31, 
  0x2f, 0x42, 0x69, 0x61, 0x73, 0x41, 0x64, 0x64, 0x00, 0x00, 0x00, 0x00, 
  0x02, 0x00, 0x00, 0x00, 0x01, 0x00, 0x00, 0x00, 0x03, 0x00, 0x00, 0x00, 
  0x66, 0xf2, 0xff, 0xff, 0x00, 0x00, 0x00, 0x01, 0x18, 0x00, 0x00, 0x00, 
  0x20, 0x00, 0x00, 0x00, 0x40, 0x00, 0x00, 0x00, 0x0b, 0x00, 0x00, 0x00, 
  0x00, 0x00, 0x00, 0x09, 0x98, 0x00, 0x00, 0x00, 0x02, 0x00, 0x00, 0x00, 
  0xff, 0xff, 0xff, 0xff, 0x20, 0x00, 0x00, 0x00, 0x4c, 0xf2, 0xff, 0xff, 
  0x08, 0x00, 0x00, 0x00, 0x14, 0x00, 0x00, 0x00, 0x01, 0x00, 0x00, 0x00, 
  0x80, 0xff, 0xff, 0xff, 0xff, 0xff, 0xff, 0xff, 0x00, 0x00, 0x00, 0x00, 
  0x01, 0x00, 0x00, 0x00, 0x14, 0x92, 0x13, 0x3d, 0x5e, 0x00, 0x00, 0x00, 
  0x73, 0x65, 0x71, 0x75, 0x65, 0x6e, 0x74, 0x69, 0x61, 0x6c, 0x5f, 0x31, 
  0x5f, 0x31, 0x2f, 0x64, 0x65, 0x6e, 0x73, 0x65, 0x5f, 0x33, 0x5f, 0x31, 
  0x2f, 0x4d, 0x61, 0x74, 0x4d, 0x75, 0x6c, 0x3b, 0x73, 0x65, 0x71, 0x75, 
  0x65, 0x6e, 0x74, 0x69, 0x61, 0x6c, 0x5f, 0x31, 0x5f, 0x31, 0x2f, 0x64, 
  0x65, 0x6e, 0x73, 0x65, 0x5f, 0x33, 0x5f, 0x31, 0x2f, 0x52, 0x65, 0x6c, 
  0x75, 0x3b, 0x73, 0x65, 0x71, 0x75, 0x65, 0x6e, 0x74, 0x69, 0x61, 0x6c, 
  0x5f, 0x31, 0x5f, 0x31, 0x2f, 0x64, 0x65, 0x6e, 0x73, 0x65, 0x5f, 0x33, 
  0x5f, 0x31, 0x2f, 0x42, 0x69, 0x61, 0x73, 0x41, 0x64, 0x64, 0x00, 0x00, 
  0x02, 0x00, 0x00, 0x00, 0x01, 0x00, 0x00, 0x00, 0x20, 0x00, 0x00, 0x00, 
  0x26, 0xf3, 0xff, 0xff, 0x00, 0x00, 0x00, 0x01, 0x18, 0x00, 0x00, 0x00, 
  0x20, 0x00, 0x00, 0x00, 0x40, 0x00, 0x00, 0x00, 0x0a, 0x00, 0x00, 0x00, 
  0x00, 0x00, 0x00, 0x09, 0x98, 0x00, 0x00, 0x00, 0x02, 0x00, 0x00, 0x00, 
  0xff, 0xff, 0xff, 0xff, 0x40, 0x00, 0x00, 0x00, 0x0c, 0xf3, 0xff, 0xff, 
  0x08, 0x00, 0x00, 0x00, 0x14, 0x00, 0x00, 0x00, 0x01, 0x00, 0x00, 0x00, 
  0x80, 0xff, 0xff, 0xff, 0xff, 0xff, 0xff, 0xff, 0x00, 0x00, 0x00, 0x00, 
  0x01, 0x00, 0x00, 0x00, 0xc8, 0xbf, 0xd3, 0x3c, 0x5e, 0x00, 0x00, 0x00, 
  0x73, 0x65, 0x71, 0x75, 0x65, 0x6e, 0x74, 0x69, 0x61, 0x6c, 0x5f, 0x31, 
  0x5f, 0x31, 0x2f, 0x64, 0x65, 0x6e, 0x73, 0x65, 0x5f, 0x32, 0x5f, 0x31, 
  0x2f, 0x4d, 0x61, 0x74, 0x4d, 0x75, 0x6c, 0x3b, 0x73, 0x65, 0x71, 0x75, 
  0x65, 0x6e, 0x74, 0x69, 0x61, 0x6c, 0x5f, 0x31, 0x5f, 0x31, 0x2f, 0x64, 
  0x65, 0x6e, 0x73, 0x65, 0x5f, 0x32, 0x5f, 0x31, 0x2f, 0x52, 0x65, 0x6c, 
  0x75, 0x3b, 0x73, 0x65, 0x71, 0x75, 0x65, 0x6e, 0x74, 0x69, 0x61, 0x6c, 
  0x5f, 0x31, 0x5f, 0x31, 0x2f, 0x64, 0x65, 0x6e, 0x73, 0x65, 0x5f, 0x32, 
  0x5f, 0x31, 0x2f, 0x42, 0x69, 0x61, 0x73, 0x41, 0x64, 0x64, 0x00, 0x00, 
  0x02, 0x00, 0x00, 0x00, 0x01, 0x00, 0x00, 0x00, 0x40, 0x00, 0x00, 0x00, 
  0xe6, 0xf3, 0xff, 0xff, 0x00, 0x00, 0x00, 0x01, 0x18, 0x00, 0x00, 0x00, 
  0x20, 0x00, 0x00, 0x00, 0x3c, 0x00, 0x00, 0x00, 0x09, 0x00, 0x00, 0x00, 
  0x00, 0x00, 0x00, 0x09, 0x58, 0x00, 0x00, 0x00, 0x02, 0x00, 0x00, 0x00, 
  0xff, 0xff, 0xff, 0xff, 0x20, 0x00, 0x00, 0x00, 0xcc, 0xf3, 0xff, 0xff, 
  0x08, 0x00, 0x00, 0x00, 0x10, 0x00, 0x00, 0x00, 0x01, 0x00, 0x00, 0x00, 
  0x27, 0x00, 0x00, 0x00, 0x00, 0x00, 0x00, 0x00, 0x01, 0x00, 0x00, 0x00, 
  0x61, 0xf7, 0x8e, 0x3d, 0x20, 0x00, 0x00, 0x00, 0x73, 0x65, 0x71, 0x75, 
  0x65, 0x6e, 0x74, 0x69, 0x61, 0x6c, 0x5f, 0x31, 0x5f, 0x31, 0x2f, 0x66, 
  0x6c, 0x61, 0x74, 0x74, 0x65, 0x6e, 0x5f, 0x31, 0x2f, 0x52, 0x65, 0x73, 
  0x68, 0x61, 0x70, 0x65, 0x00, 0x00, 0x00, 0x00, 0x02, 0x00, 0x00, 0x00, 
  0x01, 0x00, 0x00, 0x00, 0x20, 0x00, 0x00, 0x00, 0xbe, 0xf4, 0xff, 0xff, 
  0x00, 0x00, 0x00, 0x01, 0x14, 0x00, 0x00, 0x00, 0x28, 0x03, 0x00, 0x00, 
  0x08, 0x00, 0x00, 0x00, 0x00, 0x00, 0x00, 0x09, 0x34, 0x03, 0x00, 0x00, 
  0x3c, 0xf4, 0xff, 0xff, 0x08, 0x00, 0x00, 0x00, 0x0c, 0x02, 0x00, 0x00, 
  0x40, 0x00, 0x00, 0x00, 0x00, 0x00, 0x00, 0x00, 0x00, 0x00, 0x00, 0x00, 
  0x00, 0x00, 0x00, 0x00, 0x00, 0x00, 0x00, 0x00, 0x00, 0x00, 0x00, 0x00, 
  0x00, 0x00, 0x00, 0x00, 0x00, 0x00, 0x00, 0x00, 0x00, 0x00, 0x00, 0x00, 
  0x00, 0x00, 0x00, 0x00, 0x00, 0x00, 0x00, 0x00, 0x00, 0x00, 0x00, 0x00, 
  0x00, 0x00, 0x00, 0x00, 0x00, 0x00, 0x00, 0x00, 0x00, 0x00, 0x00, 0x00, 
  0x00, 0x00, 0x00, 0x00, 0x00, 0x00, 0x00, 0x00, 0x00, 0x00, 0x00, 0x00, 
  0x00, 0x00, 0x00, 0x00, 0x00, 0x00, 0x00, 0x00, 0x00, 0x00, 0x00, 0x00, 
  0x00, 0x00, 0x00, 0x00, 0x00, 0x00, 0x00, 0x00, 0x00, 0x00, 0x00, 0x00, 
  0x00, 0x00, 0x00, 0x00, 0x00, 0x00, 0x00, 0x00, 0x00, 0x00, 0x00, 0x00, 
  0x00, 0x00, 0x00, 0x00, 0x00, 0x00, 0x00, 0x00, 0x00, 0x00, 0x00, 0x00, 
  0x00, 0x00, 0x00, 0x00, 0x00, 0x00, 0x00, 0x00, 0x00, 0x00, 0x00, 0x00, 
  0x00, 0x00, 0x00, 0x00, 0x00, 0x00, 0x00, 0x00, 0x00, 0x00, 0x00, 0x00, 
  0x00, 0x00, 0x00, 0x00, 0x00, 0x00, 0x00, 0x00, 0x00, 0x00, 0x00, 0x00, 
  0x00, 0x00, 0x00, 0x00, 0x00, 0x00, 0x00, 0x00, 0x00, 0x00, 0x00, 0x00, 
  0x00, 0x00, 0x00, 0x00, 0x00, 0x00, 0x00, 0x00, 0x00, 0x00, 0x00, 0x00, 
  0x00, 0x00, 0x00, 0x00, 0x00, 0x00, 0x00, 0x00, 0x00, 0x00, 0x00, 0x00, 
  0x00, 0x00, 0x00, 0x00, 0x00, 0x00, 0x00, 0x00, 0x00, 0x00, 0x00, 0x00, 
  0x00, 0x00, 0x00, 0x00, 0x00, 0x00, 0x00, 0x00, 0x00, 0x00, 0x00, 0x00, 
  0x00, 0x00, 0x00, 0x00, 0x00, 0x00, 0x00, 0x00, 0x00, 0x00, 0x00, 0x00, 
  0x00, 0x00, 0x00, 0x00, 0x00, 0x00, 0x00, 0x00, 0x00, 0x00, 0x00, 0x00, 
  0x00, 0x00, 0x00, 0x00, 0x00, 0x00, 0x00, 0x00, 0x00, 0x00, 0x00, 0x00, 
  0x00, 0x00, 0x00, 0x00, 0x00, 0x00, 0x00, 0x00, 0x00, 0x00, 0x00, 0x00, 
  0x00, 0x00, 0x00, 0x00, 0x00, 0x00, 0x00, 0x00, 0x00, 0x00, 0x00, 0x00, 
  0x00, 0x00, 0x00, 0x00, 0x00, 0x00, 0x00, 0x00, 0x00, 0x00, 0x00, 0x00, 
  0x00, 0x00, 0x00, 0x00, 0x00, 0x00, 0x00, 0x00, 0x00, 0x00, 0x00, 0x00, 
  0x00, 0x00, 0x00, 0x00, 0x00, 0x00, 0x00, 0x00, 0x00, 0x00, 0x00, 0x00, 
  0x00, 0x00, 0x00, 0x00, 0x00, 0x00, 0x00, 0x00, 0x00, 0x00, 0x00, 0x00, 
  0x00, 0x00, 0x00, 0x00, 0x00, 0x00, 0x00, 0x00, 0x00, 0x00, 0x00, 0x00, 
  0x00, 0x00, 0x00, 0x00, 0x00, 0x00, 0x00, 0x00, 0x00, 0x00, 0x00, 0x00, 
  0x00, 0x00, 0x00, 0x00, 0x00, 0x00, 0x00, 0x00, 0x00, 0x00, 0x00, 0x00, 
  0x00, 0x00, 0x00, 0x00, 0x00, 0x00, 0x00, 0x00, 0x00, 0x00, 0x00, 0x00, 
  0x00, 0x00, 0x00, 0x00, 0x00, 0x00, 0x00, 0x00, 0x00, 0x00, 0x00, 0x00, 
  0x00, 0x00, 0x00, 0x00, 0x00, 0x00, 0x00, 0x00, 0x00, 0x00, 0x00, 0x00, 
  0x00, 0x00, 0x00, 0x00, 0x00, 0x00, 0x00, 0x00, 0x00, 0x00, 0x00, 0x00, 
  0x00, 0x00, 0x00, 0x00, 0x00, 0x00, 0x00, 0x00, 0x00, 0x00, 0x00, 0x00, 
  0x00, 0x00, 0x00, 0x00, 0x00, 0x00, 0x00, 0x00, 0x00, 0x00, 0x00, 0x00, 
  0x00, 0x00, 0x00, 0x00, 0x00, 0x00, 0x00, 0x00, 0x00, 0x00, 0x00, 0x00, 
  0x00, 0x00, 0x00, 0x00, 0x00, 0x00, 0x00, 0x00, 0x00, 0x00, 0x00, 0x00, 
  0x00, 0x00, 0x00, 0x00, 0x00, 0x00, 0x00, 0x00, 0x00, 0x00, 0x00, 0x00, 
  0x00, 0x00, 0x00, 0x00, 0x00, 0x00, 0x00, 0x00, 0x00, 0x00, 0x00, 0x00, 
  0x00, 0x00, 0x00, 0x00, 0x00, 0x00, 0x00, 0x00, 0x00, 0x00, 0x00, 0x00, 
  0x00, 0x00, 0x00, 0x00, 0x00, 0x00, 0x00, 0x00, 0x00, 0x00, 0x00, 0x00, 
  0x00, 0x00, 0x00, 0x00, 0x00, 0x00, 0x00, 0x00, 0x00, 0x00, 0x00, 0x00, 
  0x00, 0x00, 0x00, 0x00, 0x40, 0x00, 0x00, 0x00, 0xe5, 0xea, 0x05, 0x3b, 
  0xad, 0x28, 0x13, 0x3b, 0xa7, 0xca, 0x00, 0x3b, 0x06, 0x39, 0xec, 0x3a, 
  0x02, 0x57, 0x07, 0x3b, 0xf2, 0xa5, 0x04, 0x3b, 0x2a, 0xe9, 0xf7, 0x3a, 
  0x1d, 0x13, 0x1b, 0x3b, 0xa5, 0xfc, 0xf2, 0x3a, 0x65, 0xde, 0x0a, 0x3b, 
  0x24, 0x1f, 0x00, 0x3b, 0x80, 0xfc, 0xfc, 0x3a, 0xc2, 0x5c, 0xfc, 0x3a, 
  0xb0, 0xa4, 0xf1, 0x3a, 0x90, 0xa3, 0x03, 0x3b, 0xf9, 0x68, 0xfb, 0x3a, 
  0x68, 0x95, 0xf1, 0x3a, 0x06, 0x57, 0xfe, 0x3a, 0xb8, 0x3c, 0x0a, 0x3b, 
  0x26, 0x30, 0xff, 0x3a, 0xe0, 0xf6, 0x0a, 0x3b, 0xde, 0x3d, 0xf9, 0x3a, 
  0xea, 0x1d, 0x15, 0x3b, 0xa9, 0xfb, 0x03, 0x3b, 0x12, 0xa3, 0xcb, 0x3a, 
  0xd6, 0xa9, 0xfc, 0x3a, 0x4f, 0x3c, 0x06, 0x3b, 0xc6, 0x3b, 0x01, 0x3b, 
  0x8b, 0xfe, 0x05, 0x3b, 0x79, 0x26, 0x01, 0x3b, 0x31, 0xbb, 0x16, 0x3b, 
  0x97, 0x44, 0xfc, 0x3a, 0x77, 0x36, 0xfc, 0x3a, 0x56, 0x6a, 0xf6, 0x3a, 
  0xbd, 0x06, 0x16, 0x3b, 0x97, 0x7e, 0x10, 0x3b, 0x37, 0xad, 0x0f, 0x3b, 
  0x1c, 0x67, 0x08, 0x3b, 0x32, 0x6c, 0x00, 0x3b, 0xd0, 0x14, 0xfd, 0x3a, 
  0x5f, 0x8a, 0x03, 0x3b, 0x2b, 0x0a, 0x01, 0x3b, 0x80, 0x2c, 0xec, 0x3a, 
  0xf4, 0x5f, 0x03, 0x3b, 0x84, 0x89, 0xfc, 0x3a, 0x01, 0xe5, 0x00, 0x3b, 
  0x91, 0xd4, 0xf8, 0x3a, 0xcf, 0x73, 0x0d, 0x3b, 0xcc, 0x8b, 0xf9, 0x3a, 
  0xe4, 0xb9, 0xfe, 0x3a, 0x52, 0x29, 0x20, 0x3b, 0xf8, 0xf7, 0xf2, 0x3a, 
  0x68, 0x31, 0xee, 0x3a, 0x8a, 0xdb, 0x03, 0x3b, 0x22, 0x57, 0x02, 0x3b, 
  0x04, 0x86, 0xf0, 0x3a, 0x67, 0xfd, 0xfc, 0x3a, 0x41, 0x9a, 0xff, 0x3a, 
  0xce, 0x34, 0xf9, 0x3a, 0xef, 0x99, 0x1c, 0x3b, 0xe5, 0x6b, 0x04, 0x3b, 
  0x93, 0x12, 0x09, 0x3b, 0x62, 0xfb, 0xe9, 0x3a, 0xb6, 0xc8, 0x03, 0x3b, 
  0x12, 0x00, 0x00, 0x00, 0x74, 0x66, 0x6c, 0x2e, 0x70, 0x73, 0x65, 0x75, 
  0x64, 0x6f, 0x5f, 0x71, 0x63, 0x6f, 0x6e, 0x73, 0x74, 0x35, 0x00, 0x00, 
  0x02, 0x00, 0x00, 0x00, 0x40, 0x00, 0x00, 0x00, 0x20, 0x00, 0x00, 0x00, 
  0x16, 0xf8, 0xff, 0xff, 0x00, 0x00, 0x00, 0x01, 0x14, 0x00, 0x00, 0x00, 
  0x24, 0x03, 0x00, 0x00, 0x07, 0x00, 0x00, 0x00, 0x00, 0x00, 0x00, 0x02, 
  0x30, 0x03, 0x00, 0x00, 0x94, 0xf7, 0xff, 0xff, 0x08, 0x00, 0x00, 0x00, 
  0x08, 0x02, 0x00, 0x00, 0x40, 0x00, 0x00, 0x00, 0x00, 0x00, 0x00, 0x00, 
  0x00, 0x00, 0x00, 0x00, 0x00, 0x00, 0x00, 0x00, 0x00, 0x00, 0x00, 0x00, 
  0x00, 0x00, 0x00, 0x00, 0x00, 0x00, 0x00, 0x00, 0x00, 0x00, 0x00, 0x00, 
  0x00, 0x00, 0x00, 0x00, 0x00, 0x00, 0x00, 0x00, 0x00, 0x00, 0x00, 0x00, 
  0x00, 0x00, 0x00, 0x00, 0x00, 0x00, 0x00, 0x00, 0x00, 0x00, 0x00, 0x00, 
  0x00, 0x00, 0x00, 0x00, 0x00, 0x00, 0x00, 0x00, 0x00, 0x00, 0x00, 0x00, 
  0x00, 0x00, 0x00, 0x00, 0x00, 0x00, 0x00, 0x00, 0x00, 0x00, 0x00, 0x00, 
  0x00, 0x00, 0x00, 0x00, 0x00, 0x00, 0x00, 0x00, 0x00, 0x00, 0x00, 0x00, 
  0x00, 0x00, 0x00, 0x00, 0x00, 0x00, 0x00, 0x00, 0x00, 0x00, 0x00, 0x00, 
  0x00, 0x00, 0x00, 0x00, 0x00, 0x00, 0x00, 0x00, 0x00, 0x00, 0x00, 0x00, 
  0x00, 0x00, 0x00, 0x00, 0x00, 0x00, 0x00, 0x00, 0x00, 0x00, 0x00, 0x00, 
  0x00, 0x00, 0x00, 0x00, 0x00, 0x00, 0x00, 0x00, 0x00, 0x00, 0x00, 0x00, 
  0x00, 0x00, 0x00, 0x00, 0x00, 0x00, 0x00, 0x00, 0x00, 0x00, 0x00, 0x00, 
  0x00, 0x00, 0x00, 0x00, 0x00, 0x00, 0x00, 0x00, 0x00, 0x00, 0x00, 0x00, 
  0x00, 0x00, 0x00, 0x00, 0x00, 0x00, 0x00, 0x00, 0x00, 0x00, 0x00, 0x00, 
  0x00, 0x00, 0x00, 0x00, 0x00, 0x00, 0x00, 0x00, 0x00, 0x00, 0x00, 0x00, 
  0x00, 0x00, 0x00, 0x00, 0x00, 0x00, 0x00, 0x00, 0x00, 0x00, 0x00, 0x00, 
  0x00, 0x00, 0x00, 0x00, 0x00, 0x00, 0x00, 0x00, 0x00, 0x00, 0x00, 0x00, 
  0x00, 0x00, 0x00, 0x00, 0x00, 0x00, 0x00, 0x00, 0x00, 0x00, 0x00, 0x00, 
  0x00, 0x00, 0x00, 0x00, 0x00, 0x00, 0x00, 0x00, 0x00, 0x00, 0x00, 0x00, 
  0x00, 0x00, 0x00, 0x00, 0x00, 0x00, 0x00, 0x00, 0x00, 0x00, 0x00, 0x00, 
  0x00, 0x00, 0x00, 0x00, 0x00, 0x00, 0x00, 0x00, 0x00, 0x00, 0x00, 0x00, 
  0x00, 0x00, 0x00, 0x00, 0x00, 0x00, 0x00, 0x00, 0x00, 0x00, 0x00, 0x00, 
  0x00, 0x00, 0x00, 0x00, 0x00, 0x00, 0x00, 0x00, 0x00, 0x00, 0x00, 0x00, 
  0x00, 0x00, 0x00, 0x00, 0x00, 0x00, 0x00, 0x00, 0x00, 0x00, 0x00, 0x00, 
  0x00, 0x00, 0x00, 0x00, 0x00, 0x00, 0x00, 0x00, 0x00, 0x00, 0x00, 0x00, 
  0x00, 0x00, 0x00, 0x00, 0x00, 0x00, 0x00, 0x00, 0x00, 0x00, 0x00, 0x00, 
  0x00, 0x00, 0x00, 0x00, 0x00, 0x00, 0x00, 0x00, 0x00, 0x00, 0x00, 0x00, 
  0x00, 0x00, 0x00, 0x00, 0x00, 0x00, 0x00, 0x00, 0x00, 0x00, 0x00, 0x00, 
  0x00, 0x00, 0x00, 0x00, 0x00, 0x00, 0x00, 0x00, 0x00, 0x00, 0x00, 0x00, 
  0x00, 0x00, 0x00, 0x00, 0x00, 0x00, 0x00, 0x00, 0x00, 0x00, 0x00, 0x00, 
  0x00, 0x00, 0x00, 0x00, 0x00, 0x00, 0x00, 0x00, 0x00, 0x00, 0x00, 0x00, 
  0x00, 0x00, 0x00, 0x00, 0x00, 0x00, 0x00, 0x00, 0x00, 0x00, 0x00, 0x00, 
  0x00, 0x00, 0x00, 0x00, 0x00, 0x00, 0x00, 0x00, 0x00, 0x00, 0x00, 0x00, 
  0x00, 0x00, 0x00, 0x00, 0x00, 0x00, 0x00, 0x00, 0x00, 0x00, 0x00, 0x00, 
  0x00, 0x00, 0x00, 0x00, 0x00, 0x00, 0x00, 0x00, 0x00, 0x00, 0x00, 0x00, 
  0x00, 0x00, 0x00, 0x00, 0x00, 0x00, 0x00, 0x00, 0x00, 0x00, 0x00, 0x00, 
  0x00, 0x00, 0x00, 0x00, 0x00, 0x00, 0x00, 0x00, 0x00, 0x00, 0x00, 0x00, 
  0x00, 0x00, 0x00, 0x00, 0x00, 0x00, 0x00, 0x00, 0x00, 0x00, 0x00, 0x00, 
  0x00, 0x00, 0x00, 0x00, 0x00, 0x00, 0x00, 0x00, 0x00, 0x00, 0x00, 0x00, 
  0x00, 0x00, 0x00, 0x00, 0x00, 0x00, 0x00, 0x00, 0x00, 0x00, 0x00, 0x00, 
  0x00, 0x00, 0x00, 0x00, 0x00, 0x00, 0x00, 0x00, 0x00, 0x00, 0x00, 0x00, 
  0x00, 0x00, 0x00, 0x00, 0x00, 0x00, 0x00, 0x00, 0x00, 0x00, 0x00, 0x00, 
  0x00, 0x00, 0x00, 0x00, 0x40, 0x00, 0x00, 0x00, 0x67, 0x93, 0x15, 0x39, 
  0x88, 0x5d, 0x24, 0x39, 0xba, 0xd9, 0x0f, 0x39, 0xe6, 0xeb, 0x03, 0x39, 
  0x17, 0x2a, 0x17, 0x39, 0x75, 0x28, 0x14, 0x39, 0xe5, 0x72, 0x0a, 0x39, 
  0xe9, 0x34, 0x2d, 0x39, 0xf1, 0xb2, 0x07, 0x39, 0x1a, 0x1b, 0x1b, 0x39, 
  0x29, 0x1a, 0x0f, 0x39, 0x86, 0x48, 0x0d, 0x39, 0x51, 0xef, 0x0c, 0x39, 
  0xdb, 0xf2, 0x06, 0x39, 0xdd, 0x07, 0x13, 0x39, 0x2c, 0x67, 0x0c, 0x39, 
  0x52, 0xea, 0x06, 0x39, 0x0c, 0x0a, 0x0e, 0x39, 0x86, 0x66, 0x1a, 0x39, 
  0x4d, 0x83, 0x0e, 0x39, 0x72, 0x36, 0x1b, 0x39, 0x2a, 0x31, 0x0b, 0x39, 
  0x60, 0x8d, 0x26, 0x39, 0x43, 0x6a, 0x13, 0x39, 0x77, 0x72, 0xe3, 0x38, 
  0x5c, 0x1a, 0x0d, 0x39, 0x56, 0xee, 0x15, 0x39, 0x13, 0x58, 0x10, 0x39, 
  0x59, 0xa9, 0x15, 0x39, 0x48, 0x40, 0x10, 0x39, 0xfa, 0x5a, 0x28, 0x39, 
  0xd2, 0xe1, 0x0c, 0x39, 0xee, 0xd9, 0x0c, 0x39, 0x1a, 0x9d, 0x09, 0x39, 
  0x6c, 0x91, 0x27, 0x39, 0xb1, 0x63, 0x21, 0x39, 0xd6, 0x79, 0x20, 0x39, 
  0x01, 0x5a, 0x18, 0x39, 0x3a, 0x70, 0x0f, 0x39, 0x1a, 0x56, 0x0d, 0x39, 
  0xba, 0xeb, 0x12, 0x39, 0xab, 0x20, 0x10, 0x39, 0xe7, 0xe4, 0x03, 0x39, 
  0x59, 0xbc, 0x12, 0x39, 0x50, 0x08, 0x0d, 0x39, 0x29, 0xf7, 0x0f, 0x39, 
  0x5c, 0xf6, 0x0a, 0x39, 0xda, 0xfd, 0x1d, 0x39, 0xb0, 0x5c, 0x0b, 0x39, 
  0x42, 0x41, 0x0e, 0x39, 0x60, 0xe3, 0x32, 0x39, 0x55, 0xb0, 0x07, 0x39, 
  0x94, 0x05, 0x05, 0x39, 0x63, 0x46, 0x13, 0x39, 0x91, 0x94, 0x11, 0x39, 
  0xc3, 0x52, 0x06, 0x39, 0x07, 0x49, 0x0d, 0x39, 0x8f, 0xbe, 0x0e, 0x39, 
  0x1b, 0x2c, 0x0b, 0x39, 0x6d, 0xe9, 0x2e, 0x39, 0x9f, 0xe7, 0x13, 0x39, 
  0x85, 0x19, 0x19, 0x39, 0x8b, 0xab, 0x02, 0x39, 0x5b, 0x31, 0x13, 0x39, 
  0x12, 0x00, 0x00, 0x00, 0x74, 0x66, 0x6c, 0x2e, 0x70, 0x73, 0x65, 0x75, 
  0x64, 0x6f, 0x5f, 0x71, 0x63, 0x6f, 0x6e, 0x73, 0x74, 0x34, 0x00, 0x00, 
  0x01, 0x00, 0x00, 0x00, 0x40, 0x00, 0x00, 0x00, 0x66, 0xfb, 0xff, 0xff, 
  0x00, 0x00, 0x00, 0x01, 0x14, 0x00, 0x00, 0x00, 0xa8, 0x01, 0x00, 0x00, 
  0x06, 0x00, 0x00, 0x00, 0x00, 0x00, 0x00, 0x09, 0xb4, 0x01, 0x00, 0x00, 
  0xe4, 0xfa, 0xff, 0xff, 0x08, 0x00, 0x00, 0x00, 0x0c, 0x01, 0x00, 0x00, 
  0x20, 0x00, 0x00, 0x00, 0x00, 0x00, 0x00, 0x00, 0x00, 0x00, 0x00, 0x00, 
  0x00, 0x00, 0x00, 0x00, 0x00, 0x00, 0x00, 0x00, 0x00, 0x00, 0x00, 0x00, 
  0x00, 0x00, 0x00, 0x00, 0x00, 0x00, 0x00, 0x00, 0x00, 0x00, 0x00, 0x00, 
  0x00, 0x00, 0x00, 0x00, 0x00, 0x00, 0x00, 0x00, 0x00, 0x00, 0x00, 0x00, 
  0x00, 0x00, 0x00, 0x00, 0x00, 0x00, 0x00, 0x00, 0x00, 0x00, 0x00, 0x00, 
  0x00, 0x00, 0x00, 0x00, 0x00, 0x00, 0x00, 0x00, 0x00, 0x00, 0x00, 0x00, 
  0x00, 0x00, 0x00, 0x00, 0x00, 0x00, 0x00, 0x00, 0x00, 0x00, 0x00, 0x00, 
  0x00, 0x00, 0x00, 0x00, 0x00, 0x00, 0x00, 0x00, 0x00, 0x00, 0x00, 0x00, 
  0x00, 0x00, 0x00, 0x00, 0x00, 0x00, 0x00, 0x00, 0x00, 0x00, 0x00, 0x00, 
  0x00, 0x00, 0x00, 0x00, 0x00, 0x00, 0x00, 0x00, 0x00, 0x00, 0x00, 0x00, 
  0x00, 0x00, 0x00, 0x00, 0x00, 0x00, 0x00, 0x00, 0x00, 0x00, 0x00, 0x00, 
  0x00, 0x00, 0x00, 0x00, 0x00, 0x00, 0x00, 0x00, 0x00, 0x00, 0x00, 0x00, 
  0x00, 0x00, 0x00, 0x00, 0x00, 0x00, 0x00, 0x00, 0x00, 0x00, 0x00, 0x00, 
  0x00, 0x00, 0x00, 0x00, 0x00, 0x00, 0x00, 0x00, 0x00, 0x00, 0x00, 0x00, 
  0x00, 0x00, 0x00, 0x00, 0x00, 0x00, 0x00, 0x00, 0x00, 0x00, 0x00, 0x00, 
  0x00, 0x00, 0x00, 0x00, 0x00, 0x00, 0x00, 0x00, 0x00, 0x00, 0x00, 0x00, 
  0x00, 0x00, 0x00, 0x00, 0x00, 0x00, 0x00, 0x00, 0x00, 0x00, 0x00, 0x00, 
  0x00, 0x00, 0x00, 0x00, 0x00, 0x00, 0x00, 0x00, 0x00, 0x00, 0x00, 0x00, 
  0x00, 0x00, 0x00, 0x00, 0x00, 0x00, 0x00, 0x00, 0x00, 0x00, 0x00, 0x00, 
  0x00, 0x00, 0x00, 0x00, 0x00, 0x00, 0x00, 0x00, 0x00, 0x00, 0x00, 0x00, 
  0x00, 0x00, 0x00, 0x00, 0x00, 0x00, 0x00, 0x00, 0x00, 0x00, 0x00, 0x00, 
  0x00, 0x00, 0x00, 0x00, 0x00, 0x00, 0x00, 0x00, 0x00, 0x00, 0x00, 0x00, 
  0x20, 0x00, 0x00, 0x00, 0xc6, 0x71, 0x06, 0x3b, 0x8f, 0x08, 0x14, 0x3b, 
  0x51, 0x2b, 0x0b, 0x3b, 0x6d, 0xda, 0xfd, 0x3a, 0xfd, 0x03, 0x07, 0x3b, 
  0x2c, 0x79, 0x05, 0x3b, 0xf0, 0x03, 0x12, 0x3b, 0xd2, 0x24, 0x0d, 0x3b, 
  0xa9, 0x9e, 0x02, 0x3b, 0xd0, 0x79, 0x23, 0x3b, 0x48, 0x31, 0x29, 0x3b, 
  0xe1, 0x11, 0x2c, 0x3b, 0xf9, 0x81, 0xfa, 0x3a, 0xc7, 0xf8, 0x0d, 0x3b, 
  0x01, 0xcd, 0x09, 0x3b, 0x82, 0x04, 0x0b, 0x3b, 0x6d, 0xce, 0x07, 0x3b, 
  0xa7, 0xde, 0xf9, 0x3a, 0x05, 0x7d, 0x0e, 0x3b, 0xaa, 0xda, 0x04, 0x3b, 
  0x12, 0x29, 0x08, 0x3b, 0xb8, 0xf4, 0x00, 0x3b, 0xc8, 0xc7, 0x00, 0x3b, 
  0x26, 0xf8, 0xf7, 0x3a, 0x5f, 0x67, 0xf0, 0x3a, 0xb7, 0x2e, 0x10, 0x3b, 
  0x56, 0xb6, 0x1d, 0x3b, 0x8b, 0x15, 0xfe, 0x3a, 0x48, 0x0d, 0x2b, 0x3b, 
  0x0a, 0x7a, 0x0e, 0x3b, 0x81, 0x9c, 0xfd, 0x3a, 0x91, 0xd6, 0x01, 0x3b, 
  0x12, 0x00, 0x00, 0x00, 0x74, 0x66, 0x6c, 0x2e, 0x70, 0x73, 0x65, 0x75, 
  0x64, 0x6f, 0x5f, 0x71, 0x63, 0x6f, 0x6e, 0x73, 0x74, 0x33, 0x00, 0x00, 
  0x02, 0x00, 0x00, 0x00, 0x20, 0x00, 0x00, 0x00, 0x40, 0x00, 0x00, 0x00, 
  0x3e, 0xfd, 0xff, 0xff, 0x00, 0x00, 0x00, 0x01, 0x14, 0x00, 0x00, 0x00, 
  0xa4, 0x01, 0x00, 0x00, 0x05, 0x00, 0x00, 0x00, 0x00, 0x00, 0x00, 0x02, 
  0xb0, 0x01, 0x00, 0x00, 0xbc, 0xfc, 0xff, 0xff, 0x08, 0x00, 0x00, 0x00, 
  0x08, 0x01, 0x00, 0x00, 0x20, 0x00, 0x00, 0x00, 0x00, 0x00, 0x00, 0x00, 
  0x00, 0x00, 0x00, 0x00, 0x00, 0x00, 0x00, 0x00, 0x00, 0x00, 0x00, 0x00, 
  0x00, 0x00, 0x00, 0x00, 0x00, 0x00, 0x00, 0x00, 0x00, 0x00, 0x00, 0x00, 
  0x00, 0x00, 0x00, 0x00, 0x00, 0x00, 0x00, 0x00, 0x00, 0x00, 0x00, 0x00, 
  0x00, 0x00, 0x00, 0x00, 0x00, 0x00, 0x00, 0x00, 0x00, 0x00, 0x00, 0x00, 
  0x00, 0x00, 0x00, 0x00, 0x00, 0x00, 0x00, 0x00, 0x00, 0x00, 0x00, 0x00, 
  0x00, 0x00, 0x00, 0x00, 0x00, 0x00, 0x00, 0x00, 0x00, 0x00, 0x00, 0x00, 
  0x00, 0x00, 0x00, 0x00, 0x00, 0x00, 0x00, 0x00, 0x00, 0x00, 0x00, 0x00, 
  0x00, 0x00, 0x00, 0x00, 0x00, 0x00, 0x00, 0x00, 0x00, 0x00, 0x00, 0x00, 
  0x00, 0x00, 0x00, 0x00, 0x00, 0x00, 0x00, 0x00, 0x00, 0x00, 0x00, 0x00, 
  0x00, 0x00, 0x00, 0x00, 0x00, 0x00, 0x00, 0x00, 0x00, 0x00, 0x00, 0x00, 
  0x00, 0x00, 0x00, 0x00, 0x00, 0x00, 0x00, 0x00, 0x00, 0x00, 0x00, 0x00, 
  0x00, 0x00, 0x00, 0x00, 0x00, 0x00, 0x00, 0x00, 0x00, 0x00, 0x00, 0x00, 
  0x00, 0x00, 0x00, 0x00, 0x00, 0x00, 0x00, 0x00, 0x00, 0x00, 0x00, 0x00, 
  0x00, 0x00, 0x00, 0x00, 0x00, 0x00, 0x00, 0x00, 0x00, 0x00, 0x00, 0x00, 
  0x00, 0x00, 0x00, 0x00, 0x00, 0x00, 0x00, 0x00, 0x00, 0x00, 0x00, 0x00, 
  0x00, 0x00, 0x00, 0x00, 0x00, 0x00, 0x00, 0x00, 0x00, 0x00, 0x00, 0x00, 
  0x00, 0x00, 0x00, 0x00, 0x00, 0x00, 0x00, 0x00, 0x00, 0x00, 0x00, 0x00, 
  0x00, 0x00, 0x00, 0x00, 0x00, 0x00, 0x00, 0x00, 0x00, 0x00, 0x00, 0x00, 
  0x00, 0x00, 0x00, 0x00, 0x00, 0x00, 0x00, 0x00, 0x00, 0x00, 0x00, 0x00, 
  0x00, 0x00, 0x00, 0x00, 0x00, 0x00, 0x00, 0x00, 0x00, 0x00, 0x00, 0x00, 
  0x00, 0x00, 0x00, 0x00, 0x00, 0x00, 0x00, 0x00, 0x00, 0x00, 0x00, 0x00, 
  0x20, 0x00, 0x00, 0x00, 0xfc, 0x68, 0x5e, 0x38, 0xe8, 0xe3, 0x74, 0x38, 
  0xec, 0x39, 0x66, 0x38, 0x34, 0xf9, 0x51, 0x38, 0xde, 0x5a, 0x5f, 0x38, 
  0xba, 0xcd, 0x5c, 0x38, 0x44, 0x8d, 0x71, 0x38, 0x2c, 0x7e, 0x69, 0x38, 
  0x3f, 0x15, 0x58, 0x38, 0xde, 0x37, 0x87, 0x38, 0x5e, 0xf2, 0x8b, 0x38, 
  0xa4, 0x53, 0x8e, 0x38, 0xcb, 0x34, 0x4f, 0x38, 0xcf, 0xdc, 0x6a, 0x38, 
  0x67, 0xf6, 0x63, 0x38, 0xb8, 0xf9, 0x65, 0x38, 0xc2, 0xa9, 0x60, 0x38, 
  0xb4, 0xad, 0x4e, 0x38, 0x93, 0xb7, 0x6b, 0x38, 0x82, 0xc7, 0x5b, 0x38, 
  0xb6, 0x3f, 0x61, 0x38, 0x9e, 0x54, 0x55, 0x38, 0x47, 0x0a, 0x55, 0x38, 
  0x4b, 0x1b, 0x4d, 0x38, 0x4c, 0xd9, 0x46, 0x38, 0x09, 0x85, 0x6e, 0x38, 
  0x6f, 0x73, 0x82, 0x38, 0x1a, 0x2a, 0x52, 0x38, 0x17, 0x7c, 0x8d, 0x38, 
  0xa5, 0xb2, 0x6b, 0x38, 0xfc, 0xc5, 0x51, 0x38, 0x3c, 0xca, 0x56, 0x38, 
  0x12, 0x00, 0x00, 0x00, 0x74, 0x66, 0x6c, 0x2e, 0x70, 0x73, 0x65, 0x75, 
  0x64, 0x6f, 0x5f, 0x71, 0x63, 0x6f, 0x6e, 0x73, 0x74, 0x32, 0x00, 0x00, 
  0x01, 0x00, 0x00, 0x00, 0x20, 0x00, 0x00, 0x00, 0x0e, 0xff, 0xff, 0xff, 
  0x00, 0x00, 0x00, 0x01, 0x14, 0x00, 0x00, 0x00, 0x48, 0x00, 0x00, 0x00, 
  0x04, 0x00, 0x00, 0x00, 0x00, 0x00, 0x00, 0x09, 0x54, 0x00, 0x00, 0x00, 
  0x8c, 0xfe, 0xff, 0xff, 0x08, 0x00, 0x00, 0x00, 0x20, 0x00, 0x00, 0x00, 
  0x03, 0x00, 0x00, 0x00, 0x00, 0x00, 0x00, 0x00, 0x00, 0x00, 0x00, 0x00, 
  0x00, 0x00, 0x00, 0x00, 0x00, 0x00, 0x00, 0x00, 0x00, 0x00, 0x00, 0x00, 
  0x00, 0x00, 0x00, 0x00, 0x03, 0x00, 0x00, 0x00, 0x74, 0xec, 0x46, 0x3b, 
  0x63, 0x58, 0x43, 0x3b, 0x39, 0x53, 0x57, 0x3b, 0x12, 0x00, 0x00, 0x00, 
  0x74, 0x66, 0x6c, 0x2e, 0x70, 0x73, 0x65, 0x75, 0x64, 0x6f, 0x5f, 0x71, 
  0x63, 0x6f, 0x6e, 0x73, 0x74, 0x31, 0x00, 0x00, 0x02, 0x00, 0x00, 0x00, 
  0x03, 0x00, 0x00, 0x00, 0x20, 0x00, 0x00, 0x00, 0x86, 0xff, 0xff, 0xff, 
  0x00, 0x00, 0x00, 0x01, 0x14, 0x00, 0x00, 0x00, 0x4c, 0x00, 0x00, 0x00, 
  0x03, 0x00, 0x00, 0x00, 0x00, 0x00, 0x00, 0x02, 0x58, 0x00, 0x00, 0x00, 
  0x04, 0xff, 0xff, 0xff, 0x08, 0x00, 0x00, 0x00, 0x24, 0x00, 0x00, 0x00, 
  0x03, 0x00, 0x00, 0x00, 0x00, 0x00, 0x00, 0x00, 0x00, 0x00, 0x00, 0x00, 
  0x00, 0x00, 0x00, 0x00, 0x00, 0x00, 0x00, 0x00, 0x00, 0x00, 0x00, 0x00, 
  0x00, 0x00, 0x00, 0x00, 0x00, 0x00, 0x00, 0x00, 0x03, 0x00, 0x00, 0x00, 
  0x92, 0x56, 0xe5, 0x38, 0x71, 0x36, 0xe1, 0x38, 0x50, 0x3f, 0xf8, 0x38, 
  0x11, 0x00, 0x00, 0x00, 0x74, 0x66, 0x6c, 0x2e, 0x70, 0x73, 0x65, 0x75, 
  0x64, 0x6f, 0x5f, 0x71, 0x63, 0x6f, 0x6e, 0x73, 0x74, 0x00, 0x00, 0x00, 
  0x01, 0x00, 0x00, 0x00, 0x03, 0x00, 0x00, 0x00, 0x00, 0x00, 0x16, 0x00, 
  0x1c, 0x00, 0x18, 0x00, 0x17, 0x00, 0x10, 0x00, 0x0c, 0x00, 0x08, 0x00, 
  0x00, 0x00, 0x00, 0x00, 0x00, 0x00, 0x07, 0x00, 0x16, 0x00, 0x00, 0x00, 
  0x00, 0x00, 0x00, 0x01, 0x18, 0x00, 0x00, 0x00, 0x18, 0x00, 0x00, 0x00, 
  0x02, 0x00, 0x00, 0x00, 0x00, 0x00, 0x00, 0x02, 0x20, 0x00, 0x00, 0x00, 
  0x04, 0x00, 0x04, 0x00, 0x04, 0x00, 0x00, 0x00, 0x0e, 0x00, 0x00, 0x00, 
  0x61, 0x72, 0x69, 0x74, 0x68, 0x2e, 0x63, 0x6f, 0x6e, 0x73, 0x74, 0x61, 
  0x6e, 0x74, 0x00, 0x00, 0x01, 0x00, 0x00, 0x00, 0x02, 0x00, 0x00, 0x00, 
  0x00, 0x00, 0x16, 0x00, 0x20, 0x00, 0x1c, 0x00, 0x1b, 0x00, 0x14, 0x00, 
  0x10, 0x00, 0x0c, 0x00, 0x00, 0x00, 0x00, 0x00, 0x08, 0x00, 0x07, 0x00, 
  0x16, 0x00, 0x00, 0x00, 0x00, 0x00, 0x00, 0x01, 0x18, 0x00, 0x00, 0x00, 
  0x30, 0x00, 0x00, 0x00, 0x4c, 0x00, 0x00, 0x00, 0x01, 0x00, 0x00, 0x00, 
  0x00, 0x00, 0x00, 0x09, 0x64, 0x00, 0x00, 0x00, 0x03, 0x00, 0x00, 0x00, 
  0xff, 0xff, 0xff, 0xff, 0x01, 0x00, 0x00, 0x00, 0x20, 0x00, 0x00, 0x00, 
  0x0c, 0x00, 0x0c, 0x00, 0x00, 0x00, 0x00, 0x00, 0x08, 0x00, 0x04, 0x00, 
  0x0c, 0x00, 0x00, 0x00, 0x08, 0x00, 0x00, 0x00, 0x10, 0x00, 0x00, 0x00, 
  0x01, 0x00, 0x00, 0x00, 0x27, 0x00, 0x00, 0x00, 0x00, 0x00, 0x00, 0x00, 
  0x01, 0x00, 0x00, 0x00, 0x61, 0xf7, 0x8e, 0x3d, 0x1f, 0x00, 0x00, 0x00, 
  0x73, 0x65, 0x72, 0x76, 0x69, 0x6e, 0x67, 0x5f, 0x64, 0x65, 0x66, 0x61, 
  0x75, 0x6c, 0x74, 0x5f, 0x69, 0x6e, 0x70, 0x75, 0x74, 0x5f, 0x6c, 0x61, 
  0x79, 0x65, 0x72, 0x5f, 0x31, 0x3a, 0x30, 0x00, 0x03, 0x00, 0x00, 0x00, 
  0x01, 0x00, 0x00, 0x00, 0x01, 0x00, 0x00, 0x00, 0x20, 0x00, 0x00, 0x00, 
  0x03, 0x00, 0x00, 0x00, 0x44, 0x00, 0x00, 0x00, 0x24, 0x00, 0x00, 0x00, 
  0x04, 0x00, 0x00, 0x00, 0xf0, 0xff, 0xff, 0xff, 0x19, 0x00, 0x00, 0x00, 
  0x02, 0x00, 0x00, 0x00, 0x00, 0x00, 0x00, 0x19, 0x0c, 0x00, 0x10, 0x00, 
  0x0f, 0x00, 0x00, 0x00, 0x08, 0x00, 0x04, 0x00, 0x0c, 0x00, 0x00, 0x00, 
  0x09, 0x00, 0x00, 0x00, 0x04, 0x00, 0x00, 0x00, 0x00, 0x00, 0x00, 0x09, 
  0x0c, 0x00, 0x0c, 0x00, 0x0b, 0x00, 0x00, 0x00, 0x00, 0x00, 0x04, 0x00, 
  0x0c, 0x00, 0x00, 0x00, 0x16, 0x00, 0x00, 0x00, 0x00, 0x00, 0x00, 0x16
  
};
unsigned int gesture_simple_model_quantized_len = 9744;
